{
  "version": "1.0",
  "truncation": null,
  "padding": null,
  "added_tokens": [
    {
      "id": 0,
      "content": "<|endoftext|>",
      "single_word": false,
      "lstrip": false,
      "rstrip": false,
      "normalized": false,
      "special": true
    },
    {
      "id": 8192,
      "content": "<|mask|>",
      "single_word": false,
      "lstrip": false,
      "rstrip": false,
      "normalized": false,
      "special": true
    }
  ],
  "normalizer": null,
  "pre_tokenizer": {
    "type": "ByteLevel",
    "add_prefix_space": false,
    "trim_offsets": true,
    "use_regex": true
  },
  "post_processor": null,
  "decoder": {
    "type": "ByteLevel",
    "add_prefix_space": true,
    "trim_offsets": true,
    "use_regex": true
  },
  "model": {
    "type": "BPE",
    "dropout": null,
    "unk_token": null,
    "continuing_subword_prefix": null,
    "end_of_word_suffix": null,
    "fuse_unk": false,
    "byte_fallback": false,
    "ignore_merges": false,
    "vocab": {
      "<|endoftext|>": 0,
      "!": 1,
      "\"": 2,
      "#": 3,
      "$": 4,
      "%": 5,
      "&": 6,
      "'": 7,
      "(": 8,
      ")": 9,
      "*": 10,
      "+": 11,
      ",": 12,
      "-": 13,
      ".": 14,
      "/": 15,
      "0": 16,
      "1": 17,
      "2": 18,
      "3": 19,
      "4": 20,
      "5": 21,
      "6": 22,
      "7": 23,
      "8": 24,
      "9": 25,
      ":": 26,
      ";": 27,
      "<": 28,
      "=": 29,
      ">": 30,
      "?": 31,
      "@": 32,
      "A": 33,
      "B": 34,
      "C": 35,
      "D": 36,
      "E": 37,
      "F": 38,
      "G": 39,
      "H": 40,
      "I": 41,
      "J": 42,
      "K": 43,
      "L": 44,
      "M": 45,
      "N": 46,
      "O": 47,
      "P": 48,
      "Q": 49,
      "R": 50,
      "S": 51,
      "T": 52,
      "U": 53,
      "V": 54,
      "W": 55,
      "X": 56,
      "Y": 57,
      "Z": 58,
      "[": 59,
      "\\": 60,
      "]": 61,
      "^": 62,
      "_": 63,
      "`": 64,
      "a": 65,
      "b": 66,
      "c": 67,
      "d": 68,
      "e": 69,
      "f": 70,
      "g": 71,
      "h": 72,
      "i": 73,
      "j": 74,
      "k": 75,
      "l": 76,
      "m": 77,
      "n": 78,
      "o": 79,
      "p": 80,
      "q": 81,
      "r": 82,
      "s": 83,
      "t": 84,
      "u": 85,
      "v": 86,
      "w": 87,
      "x": 88,
      "y": 89,
      "z": 90,
      "{": 91,
      "|": 92,
      "}": 93,
      "~": 94,
      "¡": 95,
      "¢": 96,
      "£": 97,
      "¤": 98,
      "¥": 99,
      "¦": 100,
      "§": 101,
      "¨": 102,
      "©": 103,
      "ª": 104,
      "«": 105,
      "¬": 106,
      "®": 107,
      "¯": 108,
      "°": 109,
      "±": 110,
      "²": 111,
      "³": 112,
      "´": 113,
      "µ": 114,
      "¶": 115,
      "·": 116,
      "¸": 117,
      "¹": 118,
      "º": 119,
      "»": 120,
      "¼": 121,
      "½": 122,
      "¾": 123,
      "¿": 124,
      "À": 125,
      "Á": 126,
      "Â": 127,
      "Ã": 128,
      "Ä": 129,
      "Å": 130,
      "Æ": 131,
      "Ç": 132,
      "È": 133,
      "É": 134,
      "Ê": 135,
      "Ë": 136,
      "Ì": 137,
      "Í": 138,
      "Î": 139,
      "Ï": 140,
      "Ð": 141,
      "Ñ": 142,
      "Ò": 143,
      "Ó": 144,
      "Ô": 145,
      "Õ": 146,
      "Ö": 147,
      "×": 148,
      "Ø": 149,
      "Ù": 150,
      "Ú": 151,
      "Û": 152,
      "Ü": 153,
      "Ý": 154,
      "Þ": 155,
      "ß": 156,
      "à": 157,
      "á": 158,
      "â": 159,
      "ã": 160,
      "ä": 161,
      "å": 162,
      "æ": 163,
      "ç": 164,
      "è": 165,
      "é": 166,
      "ê": 167,
      "ë": 168,
      "ì": 169,
      "í": 170,
      "î": 171,
      "ï": 172,
      "ð": 173,
      "ñ": 174,
      "ò": 175,
      "ó": 176,
      "ô": 177,
      "õ": 178,
      "ö": 179,
      "÷": 180,
      "ø": 181,
      "ù": 182,
      "ú": 183,
      "û": 184,
      "ü": 185,
      "ý": 186,
      "þ": 187,
      "ÿ": 188,
      "Ā": 189,
      "ā": 190,
      "Ă": 191,
      "ă": 192,
      "Ą": 193,
      "ą": 194,
      "Ć": 195,
      "ć": 196,
      "Ĉ": 197,
      "ĉ": 198,
      "Ċ": 199,
      "ċ": 200,
      "Č": 201,
      "č": 202,
      "Ď": 203,
      "ď": 204,
      "Đ": 205,
      "đ": 206,
      "Ē": 207,
      "ē": 208,
      "Ĕ": 209,
      "ĕ": 210,
      "Ė": 211,
      "ė": 212,
      "Ę": 213,
      "ę": 214,
      "Ě": 215,
      "ě": 216,
      "Ĝ": 217,
      "ĝ": 218,
      "Ğ": 219,
      "ğ": 220,
      "Ġ": 221,
      "ġ": 222,
      "Ģ": 223,
      "ģ": 224,
      "Ĥ": 225,
      "ĥ": 226,
      "Ħ": 227,
      "ħ": 228,
      "Ĩ": 229,
      "ĩ": 230,
      "Ī": 231,
      "ī": 232,
      "Ĭ": 233,
      "ĭ": 234,
      "Į": 235,
      "į": 236,
      "İ": 237,
      "ı": 238,
      "Ĳ": 239,
      "ĳ": 240,
      "Ĵ": 241,
      "ĵ": 242,
      "Ķ": 243,
      "ķ": 244,
      "ĸ": 245,
      "Ĺ": 246,
      "ĺ": 247,
      "Ļ": 248,
      "ļ": 249,
      "Ľ": 250,
      "ľ": 251,
      "Ŀ": 252,
      "ŀ": 253,
      "Ł": 254,
      "ł": 255,
      "Ń": 256,
      "Ġt": 257,
      "Ġa": 258,
      "in": 259,
      "he": 260,
      "re": 261,
      "on": 262,
      "Ġthe": 263,
      "er": 264,
      "Ġs": 265,
      "at": 266,
      "Ġc": 267,
      "Ġo": 268,
      "es": 269,
      "en": 270,
      "Ġw": 271,
      "nd": 272,
      "it": 273,
      "ing": 274,
      "is": 275,
      "Ġp": 276,
      "or": 277,
      "Ġb": 278,
      "Ġf": 279,
      "ou": 280,
      "al": 281,
      "an": 282,
      "Ġm": 283,
      "ed": 284,
      "Ġto": 285,
      "Ġof": 286,
      "Ġin": 287,
      "ar": 288,
      "Ġand": 289,
      "Ġd": 290,
      "ion": 291,
      "ic": 292,
      "le": 293,
      "ro": 294,
      "as": 295,
      "Ġth": 296,
      "Ġh": 297,
      "ct": 298,
      "Ġe": 299,
      "ent": 300,
      "Ġl": 301,
      "ve": 302,
      "il": 303,
      "Ġre": 304,
      "om": 305,
      "us": 306,
      "Ġis": 307,
      "Ġn": 308,
      "Ġy": 309,
      "et": 310,
      "ly": 311,
      "Ġg": 312,
      "Ġyou": 313,
      "ow": 314,
      "Ġbe": 315,
      "im": 316,
      "ut": 317,
      "ot": 318,
      "ĠT": 319,
      "id": 320,
      "st": 321,
      "ol": 322,
      "ce": 323,
      "ig": 324,
      "Ġfor": 325,
      "ra": 326,
      "ch": 327,
      "ĠA": 328,
      "ur": 329,
      "ation": 330,
      "Ġon": 331,
      "ĠI": 332,
      "Ġst": 333,
      "Ġthat": 334,
      "ir": 335,
      "el": 336,
      "ver": 337,
      "ul": 338,
      "Ġit": 339,
      "Ġare": 340,
      "ay": 341,
      "ith": 342,
      "Ġpro": 343,
      "if": 344,
      "se": 345,
      "Ġan": 346,
      "Ġwith": 347,
      "ĠS": 348,
      "am": 349,
      "Ġor": 350,
      "Ġcon": 351,
      "Ġas": 352,
      "est": 353,
      "Ġal": 354,
      "od": 355,
      "her": 356,
      "ĠC": 357,
      "ad": 358,
      "ter": 359,
      "ke": 360,
      "un": 361,
      "Ġcan": 362,
      "Ġwh": 363,
      "ge": 364,
      "ure": 365,
      "ess": 366,
      "ĠThe": 367,
      "Ġha": 368,
      "ate": 369,
      "ill": 370,
      "Ġcom": 371,
      "um": 372,
      "ab": 373,
      "Ġex": 374,
      "ers": 375,
      "ant": 376,
      "ĠW": 377,
      "pe": 378,
      "Ġhe": 379,
      "ore": 380,
      "qu": 381,
      "igh": 382,
      "th": 383,
      "ive": 384,
      "'s": 385,
      "em": 386,
      "Ġus": 387,
      "Ġyour": 388,
      "Ġv": 389,
      "ies": 390,
      "ment": 391,
      "Ġwe": 392,
      "op": 393,
      "ity": 394,
      "ac": 395,
      "os": 396,
      "ain": 397,
      "ist": 398,
      "Ġde": 399,
      "Ġ(": 400,
      "ld": 401,
      "ĠP": 402,
      "ĠM": 403,
      "rom": 404,
      "Ġse": 405,
      "Ġne": 406,
      "ĠB": 407,
      "pp": 408,
      "Ġch": 409,
      "Ġen": 410,
      "Ġr": 411,
      "Ġsu": 412,
      "Ġat": 413,
      "ect": 414,
      "Ġsh": 415,
      "ial": 416,
      "Ġhave": 417,
      "iv": 418,
      "Ġfrom": 419,
      "ort": 420,
      "ight": 421,
      "Ġle": 422,
      "Ġdo": 423,
      "nt": 424,
      "Ġ1": 425,
      "Ġby": 426,
      "res": 427,
      "ĠD": 428,
      "Ġpl": 429,
      "ĠH": 430,
      "Ġnot": 431,
      "oc": 432,
      "and": 433,
      "art": 434,
      "per": 435,
      "ud": 436,
      "ust": 437,
      "all": 438,
      "ĠF": 439,
      "ical": 440,
      "ome": 441,
      "Ġthis": 442,
      "ri": 443,
      "ide": 444,
      "rou": 445,
      "Ġab": 446,
      "ould": 447,
      "Ġu": 448,
      "ine": 449,
      "ĠE": 450,
      "pt": 451,
      "out": 452,
      "act": 453,
      "og": 454,
      "Ġim": 455,
      "ns": 456,
      "ost": 457,
      "ard": 458,
      "Ġma": 459,
      "ell": 460,
      "ions": 461,
      "âĢ": 462,
      "du": 463,
      "ĠR": 464,
      "Ġ2": 465,
      "Ġwhe": 466,
      "red": 467,
      "Ġcomp": 468,
      "ich": 469,
      "Ġwill": 470,
      "Ġwor": 471,
      "ast": 472,
      "ff": 473,
      "our": 474,
      "gh": 475,
      "Ġthey": 476,
      "Ġk": 477,
      "Ġint": 478,
      "Ġtheir": 479,
      "ther": 480,
      "ood": 481,
      "iz": 482,
      "age": 483,
      "king": 484,
      "pl": 485,
      "Ġad": 486,
      "ĠN": 487,
      "The": 488,
      "ater": 489,
      "ĠL": 490,
      "Ġall": 491,
      "Ġwas": 492,
      "ated": 493,
      "ag": 494,
      "able": 495,
      "Ġmore": 496,
      "end": 497,
      "ĠG": 498,
      "Ġcont": 499,
      "ere": 500,
      "hat": 501,
      "ib": 502,
      "ult": 503,
      "ans": 504,
      "ally": 505,
      "Ġbut": 506,
      "Ġso": 507,
      "oo": 508,
      "ks": 509,
      "ip": 510,
      "ĠO": 511,
      "ous": 512,
      "Ġinc": 513,
      "ru": 514,
      "Ġme": 515,
      "00": 516,
      "wer": 517,
      "so": 518,
      "ind": 519,
      "ep": 520,
      "Ġte": 521,
      "ry": 522,
      "Ġj": 523,
      "ike": 524,
      "Ġres": 525,
      "estion": 526,
      "ong": 527,
      "cc": 528,
      "are": 529,
      "Ġcl": 530,
      "Qu": 531,
      "orm": 532,
      "ance": 533,
      "Ġhas": 534,
      "Ġwhich": 535,
      "Ġdis": 536,
      "Ġout": 537,
      "vel": 538,
      "ations": 539,
      "Ġ\"": 540,
      "Ġsp": 541,
      "Ġimp": 542,
      "Ġun": 543,
      "ction": 544,
      "ear": 545,
      "his": 546,
      "ie": 547,
      "Ġother": 548,
      "one": 549,
      "nswer": 550,
      "Ġalso": 551,
      "ents": 552,
      "av": 553,
      "Question": 554,
      "'t": 555,
      "Ġman": 556,
      "Ġone": 557,
      "Ġtim": 558,
      "Ġspe": 559,
      "reat": 560,
      "ens": 561,
      "aus": 562,
      "ĠAnswer": 563,
      "very": 564,
      "ign": 565,
      "ace": 566,
      "ice": 567,
      "ence": 568,
      "ach": 569,
      "ass": 570,
      "ap": 571,
      "Ġfe": 572,
      "ition": 573,
      "ase": 574,
      "ĠIn": 575,
      "Ġthem": 576,
      "ack": 577,
      "ĠU": 578,
      "Ġabout": 579,
      "Ġper": 580,
      "low": 581,
      "ors": 582,
      "ary": 583,
      "Ġlike": 584,
      "ĠIt": 585,
      "Ġpre": 586,
      "Ġup": 587,
      "ress": 588,
      "Ġsc": 589,
      "iff": 590,
      "Ġro": 591,
      "..": 592,
      "Ġsome": 593,
      "Ġqu": 594,
      "now": 595,
      "Ġwhen": 596,
      "ire": 597,
      "ue": 598,
      "Ġev": 599,
      "ile": 600,
      "ild": 601,
      "Ġsy": 602,
      "Ġif": 603,
      "ite": 604,
      "ia": 605,
      "ound": 606,
      "Ġpart": 607,
      "ces": 608,
      "Ġneed": 609,
      "ose": 610,
      "Ġdiff": 611,
      "Ġinto": 612,
      "Ġcol": 613,
      "Ġuse": 614,
      "Ġtime": 615,
      "ĠThis": 616,
      "Ġmay": 617,
      "Ġapp": 618,
      "Ġhow": 619,
      "ak": 620,
      "form": 621,
      "ric": 622,
      "ĠY": 623,
      "ll": 624,
      "ame": 625,
      "Ġthan": 626,
      "ail": 627,
      "Ġthere": 628,
      "ays": 629,
      "ber": 630,
      "Ġhel": 631,
      "row": 632,
      "Ġits": 633,
      "Ġar": 634,
      "ings": 635,
      "Ġbec": 636,
      "lect": 637,
      "ree": 638,
      "Ġany": 639,
      "Ġtra": 640,
      "Ġpe": 641,
      "Ġover": 642,
      "ĠWhat": 643,
      "Ġrec": 644,
      "ause": 645,
      "Ġbl": 646,
      "ific": 647,
      "Ġhelp": 648,
      "als": 649,
      "Ġcomm": 650,
      "Ġbet": 651,
      "cess": 652,
      "Ġspec": 653,
      "Ġcons": 654,
      "Ġknow": 655,
      "ating": 656,
      "Ġgo": 657,
      "Ġthese": 658,
      "nder": 659,
      "ang": 660,
      "ove": 661,
      "ord": 662,
      "int": 663,
      "les": 664,
      "ond": 665,
      "ough": 666,
      "hy": 667,
      "Ġget": 668,
      "olog": 669,
      "te": 670,
      "Ġdes": 671,
      "we": 672,
      "Ġtr": 673,
      "ish": 674,
      "ake": 675,
      "ĠâĢ": 676,
      "Ġstud": 677,
      "stem": 678,
      "rough": 679,
      "Ġind": 680,
      "Ġsa": 681,
      "Ġwater": 682,
      "ons": 683,
      "Ġused": 684,
      "Ġprodu": 685,
      "Ġour": 686,
      "Ġwhat": 687,
      "ount": 688,
      "Ġco": 689,
      "ory": 690,
      "ub": 691,
      "Ġeff": 692,
      "Ġ3": 693,
      "ature": 694,
      "ms": 695,
      "ular": 696,
      "Ġdiffere": 697,
      "Ġra": 698,
      "ĠJ": 699,
      "ari": 700,
      "Ġfl": 701,
      "Ġgen": 702,
      "Ġmost": 703,
      "Ġyear": 704,
      "alth": 705,
      "lud": 706,
      "ning": 707,
      "Ġoff": 708,
      "ook": 709,
      "ting": 710,
      "round": 711,
      "ople": 712,
      "Ġact": 713,
      "Ġacc": 714,
      "Ġsuch": 715,
      "ick": 716,
      "vers": 717,
      "erv": 718,
      "Ġwho": 719,
      "ck": 720,
      "ne": 721,
      "Ġam": 722,
      "Ġprov": 723,
      "Ġunder": 724,
      "Ġmake": 725,
      "Ġwere": 726,
      "ient": 727,
      "ple": 728,
      "Ġag": 729,
      "Ġnew": 730,
      "eth": 731,
      "Ġadd": 732,
      "Ġshould": 733,
      "xt": 734,
      "ates": 735,
      "Ġsm": 736,
      "Ġtw": 737,
      "Ġ20": 738,
      "Ġcar": 739,
      "ility": 740,
      "ful": 741,
      "Ġem": 742,
      "Ġbeen": 743,
      "ĠSt": 744,
      "ject": 745,
      "uring": 746,
      "ange": 747,
      "irst": 748,
      "Ġpeople": 749,
      "Ġwould": 750,
      "oth": 751,
      ").": 752,
      "Ġinclud": 753,
      "Ġsystem": 754,
      "erg": 755,
      "Ġthrough": 756,
      "Ġwork": 757,
      "ph": 758,
      "oss": 759,
      "ments": 760,
      "Ġjust": 761,
      "Ġty": 762,
      "Ġdi": 763,
      "Ġno": 764,
      "Ġpr": 765,
      "ble": 766,
      "Ġonly": 767,
      "hes": 768,
      "ĠK": 769,
      "ov": 770,
      "ics": 771,
      "Ġmy": 772,
      "Ġpo": 773,
      "ower": 774,
      "ise": 775,
      "its": 776,
      "ative": 777,
      "Ġplant": 778,
      "ities": 779,
      "ced": 780,
      "Ġinter": 781,
      "Ġsur": 782,
      "Ġke": 783,
      "ten": 784,
      "ob": 785,
      "ĠV": 786,
      "Ġmany": 787,
      "ark": 788,
      "Ġhigh": 789,
      "Ġwell": 790,
      "Ġrel": 791,
      "Ġreg": 792,
      "ible": 793,
      "hen": 794,
      "velop": 795,
      "Ġhealth": 796,
      "own": 797,
      "Ġbu": 798,
      "old": 799,
      "Ġtwo": 800,
      "ual": 801,
      "fore": 802,
      "Ġdoes": 803,
      "Ġdifferent": 804,
      "tain": 805,
      "chn": 806,
      "Ġfirst": 807,
      "Ġac": 808,
      "ract": 809,
      "lic": 810,
      "fter": 811,
      "ink": 812,
      "Ġrem": 813,
      "Ġexper": 814,
      "Ġwhere": 815,
      "ren": 816,
      "ience": 817,
      "ween": 818,
      "Ġmod": 819,
      "Ġ-": 820,
      "ft": 821,
      "ram": 822,
      "Ġtrans": 823,
      "ased": 824,
      "Ġlong": 825,
      "hed": 826,
      "Ġche": 827,
      "Ġway": 828,
      "uch": 829,
      "get": 830,
      "Ġdevelop": 831,
      "Ġrep": 832,
      "Ġob": 833,
      "Ġbetween": 834,
      "Ġimport": 835,
      "Ġsim": 836,
      "Ġprocess": 837,
      "ize": 838,
      "ife": 839,
      "cy": 840,
      "Ġsupp": 841,
      "Ġthen": 842,
      "Ġvari": 843,
      "ually": 844,
      "Ġdec": 845,
      "Ġpat": 846,
      "ade": 847,
      "arm": 848,
      "rit": 849,
      "Ġusing": 850,
      "ĠIf": 851,
      "erm": 852,
      "ef": 853,
      "ential": 854,
      "In": 855,
      "Ġcould": 856,
      "Ġinv": 857,
      "ĠCh": 858,
      "Ġinst": 859,
      "Ġass": 860,
      "Ġbecause": 861,
      "Ġdet": 862,
      "rib": 863,
      "Ġeven": 864,
      "Ġfood": 865,
      "ts": 866,
      "Ġinf": 867,
      "Ġevery": 868,
      "Ġatt": 869,
      "Ġ4": 870,
      "Ġgrow": 871,
      "Ġcre": 872,
      "iron": 873,
      "ious": 874,
      "iss": 875,
      "wn": 876,
      "ically": 877,
      "Ġph": 878,
      "Ġform": 879,
      "ever": 880,
      "ĠHow": 881,
      "Ġmain": 882,
      "Ġeffect": 883,
      "Ġvery": 884,
      "ĠThey": 885,
      "Ġtechn": 886,
      "Ġsub": 887,
      "'re": 888,
      "ily": 889,
      "ural": 890,
      "Ġsee": 891,
      "pect": 892,
      "gan": 893,
      "iqu": 894,
      "ps": 895,
      "ines": 896,
      "Ġ5": 897,
      "oy": 898,
      "ution": 899,
      "ĠYou": 900,
      "arch": 901,
      "ins": 902,
      "Ġrequ": 903,
      "Ġlear": 904,
      "Ġeach": 905,
      "Ġmuch": 906,
      "Ġsk": 907,
      "Ġext": 908,
      "ures": 909,
      "ool": 910,
      "Ġlar": 911,
      "Ġrese": 912,
      "Ġhum": 913,
      "mer": 914,
      "ody": 915,
      "Ġsign": 916,
      "Ġnum": 917,
      "ness": 918,
      "ology": 919,
      "Ġback": 920,
      "Ġins": 921,
      "Ġdon": 922,
      "gg": 923,
      "Ġexp": 924,
      "Ġlight": 925,
      "vent": 926,
      "--": 927,
      "Ġgood": 928,
      "Ġwant": 929,
      "ata": 930,
      "Ġimportant": 931,
      "cial": 932,
      "Ġgener": 933,
      "Ġexam": 934,
      "ron": 935,
      "Ġgra": 936,
      "ian": 937,
      "ruct": 938,
      "Ġsol": 939,
      "ĠâĢĵ": 940,
      "Ġmin": 941,
      "Ġhad": 942,
      "Ġyears": 943,
      "Ġset": 944,
      "Ġfol": 945,
      "Ġpers": 946,
      "Ġchild": 947,
      "Ġdisc": 948,
      "ergy": 949,
      "Ġsmall": 950,
      "uc": 951,
      "Ġincre": 952,
      "Ġfind": 953,
      "viron": 954,
      "Ġfun": 955,
      "elf": 956,
      "Ġwhile": 957,
      "ss": 958,
      "Ġav": 959,
      "stand": 960,
      "Ġdog": 961,
      "ety": 962,
      "),": 963,
      "Ġcle": 964,
      "Ġhis": 965,
      "Ġpres": 966,
      "ues": 967,
      "Ġear": 968,
      "Ġve": 969,
      "ec": 970,
      "Ġafter": 971,
      "Ġelect": 972,
      "Ġstart": 973,
      "ĠWh": 974,
      "Ġ19": 975,
      "ock": 976,
      "ality": 977,
      "Ġtake": 978,
      "Ġmed": 979,
      "ied": 980,
      "other": 981,
      "Ġresult": 982,
      "ational": 983,
      "Ġgl": 984,
      "Ġair": 985,
      "Ġfound": 986,
      "Ġdesign": 987,
      "ix": 988,
      "Ġcur": 989,
      "Ġref": 990,
      "Ġbeing": 991,
      "Ġcell": 992,
      "Ġsec": 993,
      "ĠWe": 994,
      "Ġlevel": 995,
      "ists": 996,
      "ices": 997,
      "...": 998,
      "Ġworld": 999,
      "Ġart": 1000,
      "urn": 1001,
      "ds": 1002,
      "ases": 1003,
      "nce": 1004,
      "aterial": 1005,
      "Ġbre": 1006,
      "cept": 1007,
      "Ġfact": 1008,
      "tle": 1009,
      "Ġcall": 1010,
      "Ġduring": 1011,
      "Ġval": 1012,
      "Ġhand": 1013,
      "Ġloc": 1014,
      "Ġeas": 1015,
      "Ġbefore": 1016,
      "Ġher": 1017,
      "Ġcor": 1018,
      "Ġcomple": 1019,
      "Ġfollow": 1020,
      "Ġaround": 1021,
      "ages": 1022,
      "ĠUn": 1023,
      "Ġdep": 1024,
      "Ġsame": 1025,
      "Ġdist": 1026,
      "eg": 1027,
      "Ġallow": 1028,
      "Ġinform": 1029,
      "Ġpot": 1030,
      "vironment": 1031,
      "Ġprog": 1032,
      "Ġ201": 1033,
      "ider": 1034,
      "Ġbr": 1035,
      "Ġproble": 1036,
      "Ġshe": 1037,
      "Ġdown": 1038,
      "Ġtem": 1039,
      "ives": 1040,
      "els": 1041,
      "Ġown": 1042,
      "ward": 1043,
      "Ġstr": 1044,
      "Ġpartic": 1045,
      "rop": 1046,
      "omm": 1047,
      "ized": 1048,
      "Ġthose": 1049,
      "Ġmon": 1050,
      "dition": 1051,
      "Ġredu": 1052,
      "Ġtyp": 1053,
      "tern": 1054,
      "Ġexpl": 1055,
      "Ġent": 1056,
      "Ġlife": 1057,
      "Ġanim": 1058,
      "cl": 1059,
      "air": 1060,
      "Ġbo": 1061,
      "Ġoften": 1062,
      "ys": 1063,
      "Ġright": 1064,
      "Ġdata": 1065,
      "Ġboth": 1066,
      "Ġenergy": 1067,
      "Ġshow": 1068,
      "cer": 1069,
      "Ġlead": 1070,
      "chool": 1071,
      ".\"": 1072,
      "Ġkeep": 1073,
      "Ġaut": 1074,
      "ident": 1075,
      "Ġcontro": 1076,
      "Ġmaterial": 1077,
      "Ġbest": 1078,
      "ather": 1079,
      "Ġread": 1080,
      "aw": 1081,
      "io": 1082,
      "Ġtoo": 1083,
      "ale": 1084,
      "Ġopt": 1085,
      "ew": 1086,
      "Ġbody": 1087,
      "Ġpower": 1088,
      "ides": 1089,
      "ets": 1090,
      "ger": 1091,
      "ty": 1092,
      "Ġgu": 1093,
      "Ġed": 1094,
      "Ġvis": 1095,
      "Ġmade": 1096,
      "iew": 1097,
      "ien": 1098,
      "Ġchar": 1099,
      "atter": 1100,
      "ĠFor": 1101,
      "Ġperson": 1102,
      "ium": 1103,
      "Ġless": 1104,
      "Ġ6": 1105,
      "Ġ'": 1106,
      "Ġsom": 1107,
      "Ġcat": 1108,
      "Ġplay": 1109,
      "Ġcommon": 1110,
      "ull": 1111,
      "read": 1112,
      "ving": 1113,
      "Ġend": 1114,
      "Ġpop": 1115,
      "Ġproduct": 1116,
      "Ġcare": 1117,
      "Ġdr": 1118,
      "ted": 1119,
      "Ġposs": 1120,
      "Ġprot": 1121,
      "reen": 1122,
      "iel": 1123,
      "Ġtest": 1124,
      "Ġmet": 1125,
      "ĠPro": 1126,
      "ining": 1127,
      "iving": 1128,
      "ars": 1129,
      "imate": 1130,
      "ave": 1131,
      "What": 1132,
      "ional": 1133,
      "ĠAs": 1134,
      "Ġenvironment": 1135,
      "ĠHe": 1136,
      "Ġadv": 1137,
      "Ġunderstand": 1138,
      "aking": 1139,
      "ier": 1140,
      "ited": 1141,
      "eng": 1142,
      "Ġdef": 1143,
      "ĠAl": 1144,
      "Ġday": 1145,
      "Ġpoint": 1146,
      "ĠAn": 1147,
      "Ġeng": 1148,
      "Ġhome": 1149,
      "Ġresp": 1150,
      "hys": 1151,
      "ute": 1152,
      "Ġinformation": 1153,
      "ath": 1154,
      "Ġlit": 1155,
      "acter": 1156,
      "rent": 1157,
      "Ġcommun": 1158,
      "led": 1159,
      "Ġsaid": 1160,
      "Ġspecies": 1161,
      "ivers": 1162,
      "up": 1163,
      "cing": 1164,
      "ason": 1165,
      "ethod": 1166,
      "Ġorgan": 1167,
      "ved": 1168,
      "Ġtreat": 1169,
      "Ġequ": 1170,
      "Ġproper": 1171,
      "ves": 1172,
      "ivid": 1173,
      "ined": 1174,
      "ict": 1175,
      "rap": 1176,
      "der": 1177,
      "oci": 1178,
      "perature": 1179,
      "Ġmight": 1180,
      "Ġnumber": 1181,
      "Ġnow": 1182,
      "Ġben": 1183,
      "Ġens": 1184,
      "Ġsaf": 1185,
      "ven": 1186,
      "ids": 1187,
      "the": 1188,
      "ork": 1189,
      "any": 1190,
      "ands": 1191,
      "20": 1192,
      "Ġlook": 1193,
      "Ġplan": 1194,
      "ont": 1195,
      "How": 1196,
      "Ġ10": 1197,
      "Ġpol": 1198,
      "ĠThese": 1199,
      "Ġserv": 1200,
      "Ġap": 1201,
      "Ġprovide": 1202,
      "Ġstudy": 1203,
      "Ġdire": 1204,
      "ection": 1205,
      "Ġresearch": 1206,
      "Ġbra": 1207,
      "Ġbetter": 1208,
      "Ġsupport": 1209,
      "Ġfam": 1210,
      "Ġaw": 1211,
      "Ġcent": 1212,
      "Ġimpro": 1213,
      "ĠTh": 1214,
      "hip": 1215,
      "This": 1216,
      "bs": 1217,
      "cent": 1218,
      "Ġwithout": 1219,
      "Ġgreat": 1220,
      "ash": 1221,
      "Ġmethod": 1222,
      "ng": 1223,
      "Ġop": 1224,
      "ired": 1225,
      "Ġdid": 1226,
      "Ġclass": 1227,
      "Ġstudents": 1228,
      "itions": 1229,
      "âĢĻ": 1230,
      "Ġpur": 1231,
      "inal": 1232,
      "Ġbeh": 1233,
      "ĠAnd": 1234,
      "Ġaff": 1235,
      "less": 1236,
      "ead": 1237,
      "ways": 1238,
      "und": 1239,
      "Ġstill": 1240,
      "Ġtemperature": 1241,
      "Ġgrou": 1242,
      "Ġactiv": 1243,
      ",\"": 1244,
      "ants": 1245,
      "ots": 1246,
      "ulation": 1247,
      "Ġdise": 1248,
      "ering": 1249,
      "ĠTo": 1250,
      "ince": 1251,
      "Ġplants": 1252,
      "Ġhy": 1253,
      "Ġmem": 1254,
      "Ġchange": 1255,
      "Ġcreat": 1256,
      "Ġlarge": 1257,
      "itive": 1258,
      "Ġprof": 1259,
      "Ġexample": 1260,
      "ĠThere": 1261,
      "kes": 1262,
      "Ġincluding": 1263,
      "Ġpos": 1264,
      "000": 1265,
      "ĠBut": 1266,
      "ability": 1267,
      "Ġmaking": 1268,
      "day": 1269,
      "Ġnat": 1270,
      "Ġbuild": 1271,
      "Ġris": 1272,
      "Ġdra": 1273,
      "Ġtext": 1274,
      "Ġthink": 1275,
      "Ġiss": 1276,
      "oms": 1277,
      "Ġtop": 1278,
      "Ġtype": 1279,
      "Ġfew": 1280,
      "ior": 1281,
      "ert": 1282,
      "ross": 1283,
      "Ġocc": 1284,
      "Ġcontrol": 1285,
      "Ġhapp": 1286,
      "Ġbel": 1287,
      "ention": 1288,
      "If": 1289,
      "Ġpain": 1290,
      "Ġide": 1291,
      "Ġagain": 1292,
      "Ġbenef": 1293,
      "Ġflow": 1294,
      "ism": 1295,
      "Ġchang": 1296,
      "apt": 1297,
      "line": 1298,
      "Ġcreate": 1299,
      "Ġey": 1300,
      "ared": 1301,
      "Ġsl": 1302,
      "ouse": 1303,
      "Ġknown": 1304,
      "Ġhuman": 1305,
      "It": 1306,
      "Ġcontain": 1307,
      "Ġpract": 1308,
      "Ġcaus": 1309,
      "Ġser": 1310,
      "Ġperform": 1311,
      "hers": 1312,
      "co": 1313,
      "Ġthree": 1314,
      "ording": 1315,
      "ify": 1316,
      "Ġele": 1317,
      "Ġsw": 1318,
      "Ġ7": 1319,
      "Ġbas": 1320,
      "Ġplace": 1321,
      "Ġthough": 1322,
      "Ġmus": 1323,
      "Ġrun": 1324,
      "rodu": 1325,
      "Ġlearn": 1326,
      "ital": 1327,
      "ator": 1328,
      "Ġlow": 1329,
      "__": 1330,
      "Ġcal": 1331,
      "be": 1332,
      "Ġcount": 1333,
      "ats": 1334,
      "Ġthings": 1335,
      "Ġess": 1336,
      "ral": 1337,
      "Ġdev": 1338,
      "oid": 1339,
      "Ġ8": 1340,
      "Ġmust": 1341,
      "ĠSo": 1342,
      "Ġproject": 1343,
      "Ġsurf": 1344,
      "ooking": 1345,
      "ex": 1346,
      "Ġfeel": 1347,
      "Ġcause": 1348,
      "'ll": 1349,
      "Ġchildren": 1350,
      "ner": 1351,
      "Ġschool": 1352,
      "ters": 1353,
      "Ġsure": 1354,
      "gen": 1355,
      "here": 1356,
      "Ġindivid": 1357,
      "Ġmeas": 1358,
      "ĠHowever": 1359,
      "Ġconst": 1360,
      "Ġconf": 1361,
      "Ġappro": 1362,
      "ield": 1363,
      "Ġphys": 1364,
      "Ġdel": 1365,
      "Ġhard": 1366,
      "ole": 1367,
      "iness": 1368,
      "ĠAd": 1369,
      "ething": 1370,
      "irc": 1371,
      "Ġtre": 1372,
      "iven": 1373,
      "Ġpotential": 1374,
      "Ġarea": 1375,
      "ique": 1376,
      "Ġbir": 1377,
      "omp": 1378,
      "Ġcurrent": 1379,
      "Ġcost": 1380,
      "Ġpress": 1381,
      "Ġcalled": 1382,
      "Ġbi": 1383,
      "Ġwithin": 1384,
      "ax": 1385,
      "Ġconn": 1386,
      "Ġprevent": 1387,
      "me": 1388,
      "Ġdam": 1389,
      "Ġcontin": 1390,
      "meric": 1391,
      "ĠWhen": 1392,
      "Ġsour": 1393,
      "ense": 1394,
      "ĠSc": 1395,
      "Ġclean": 1396,
      "Ġreal": 1397,
      "'ve": 1398,
      "Ġpub": 1399,
      "Ġphot": 1400,
      "Ġgr": 1401,
      "ination": 1402,
      "de": 1403,
      "ug": 1404,
      "icle": 1405,
      "to": 1406,
      "Ġwhy": 1407,
      "Ġsomething": 1408,
      "Ġtry": 1409,
      "Ġcap": 1410,
      "br": 1411,
      "Ġreally": 1412,
      "Ġinclude": 1413,
      "aring": 1414,
      "Ġsit": 1415,
      "ank": 1416,
      "ime": 1417,
      "Ġsecond": 1418,
      "Ġmove": 1419,
      "Ġexperience": 1420,
      "Ġspecific": 1421,
      "ern": 1422,
      "ling": 1423,
      "ills": 1424,
      "Ġmark": 1425,
      "ental": 1426,
      "pr": 1427,
      "Ġsignific": 1428,
      "ently": 1429,
      "atch": 1430,
      "iver": 1431,
      "ape": 1432,
      "erest": 1433,
      "Ġrest": 1434,
      "Ġstand": 1435,
      "Ġcour": 1436,
      "Ġnatural": 1437,
      "Ġconsider": 1438,
      "Ġstate": 1439,
      "Ġpossible": 1440,
      "Ġstep": 1441,
      "Ġavail": 1442,
      "Ġoper": 1443,
      "Ġable": 1444,
      "Ġanother": 1445,
      "Ġident": 1446,
      "Ġfollowing": 1447,
      "Ġdue": 1448,
      "ization": 1449,
      "Ġgoing": 1450,
      "ected": 1451,
      "Ġtool": 1452,
      "Ġhere": 1453,
      "ertain": 1454,
      "ients": 1455,
      "Ġfunction": 1456,
      "Ġcells": 1457,
      "uss": 1458,
      "Ġimm": 1459,
      "port": 1460,
      "Ġdirect": 1461,
      "Ġlot": 1462,
      "Ġfil": 1463,
      "Ġprogram": 1464,
      "Ġsym": 1465,
      "iversity": 1466,
      "Ġcolor": 1467,
      "Ġaddition": 1468,
      "Ġwee": 1469,
      "of": 1470,
      "Ġfree": 1471,
      "ocus": 1472,
      "Ġant": 1473,
      "Ġamount": 1474,
      "Ġhead": 1475,
      "Ġcond": 1476,
      "Ġbus": 1477,
      "osed": 1478,
      "Ġbecome": 1479,
      "Ġvarious": 1480,
      "ĠPl": 1481,
      "ends": 1482,
      "Ġcome": 1483,
      "con": 1484,
      "Ġappe": 1485,
      "eds": 1486,
      "ĠAmeric": 1487,
      "Ġstruct": 1488,
      "etic": 1489,
      "Ġ200": 1490,
      "Ġlittle": 1491,
      "Ġput": 1492,
      "Ġmeans": 1493,
      "akes": 1494,
      "10": 1495,
      "Ġalways": 1496,
      "ration": 1497,
      "ĠAr": 1498,
      "land": 1499,
      "Ġsoil": 1500,
      "Ġanal": 1501,
      "thing": 1502,
      "Ġold": 1503,
      "Ġpar": 1504,
      "Ġimpact": 1505,
      "Ġopen": 1506,
      "Ġsay": 1507,
      "ished": 1508,
      "Ġblood": 1509,
      "Ġ9": 1510,
      "Ġinvol": 1511,
      "Ġret": 1512,
      "Ġsever": 1513,
      "Ġfish": 1514,
      "ane": 1515,
      "Ġlim": 1516,
      "oot": 1517,
      "Ġcomput": 1518,
      "Ġspace": 1519,
      "cle": 1520,
      "Ġpresent": 1521,
      "Ġpass": 1522,
      "icro": 1523,
      "Ġneeds": 1524,
      "Ġmult": 1525,
      "Ġlay": 1526,
      "Ġel": 1527,
      "aste": 1528,
      "Ġlast": 1529,
      "Ġest": 1530,
      "Ġcomb": 1531,
      "Ġlet": 1532,
      "Ġhig": 1533,
      "ption": 1534,
      "Ġcirc": 1535,
      "Ġvol": 1536,
      "Ġsize": 1537,
      "St": 1538,
      "ccess": 1539,
      "ones": 1540,
      "Ġheat": 1541,
      "ified": 1542,
      "Ġnut": 1543,
      "aper": 1544,
      "Ġ0": 1545,
      "Ġsignificant": 1546,
      "ush": 1547,
      "oad": 1548,
      "Ġproblem": 1549,
      "ateg": 1550,
      "Ġes": 1551,
      "Ġmean": 1552,
      "Ġavailable": 1553,
      "aves": 1554,
      "ox": 1555,
      "bers": 1556,
      "Ġtypes": 1557,
      "ered": 1558,
      "Ġet": 1559,
      "Ġcr": 1560,
      "Ġrequire": 1561,
      "ĠEx": 1562,
      "ilar": 1563,
      "arent": 1564,
      "ably": 1565,
      "Ġcy": 1566,
      "Ġprovid": 1567,
      "iod": 1568,
      "arden": 1569,
      "Ġdevelopment": 1570,
      "ocial": 1571,
      "Ġfeature": 1572,
      "âĢĶ": 1573,
      "Ġcut": 1574,
      "Ġfocus": 1575,
      "Ġfin": 1576,
      "Ġareas": 1577,
      "Ġrange": 1578,
      "over": 1579,
      "ances": 1580,
      "ending": 1581,
      "Ġprom": 1582,
      "ieve": 1583,
      "Ġlearning": 1584,
      "Ġinterest": 1585,
      "Ġseveral": 1586,
      "pecial": 1587,
      "Ġapplic": 1588,
      "Ġbased": 1589,
      "ards": 1590,
      "Ġunt": 1591,
      "ĠIs": 1592,
      "put": 1593,
      "ries": 1594,
      "ode": 1595,
      "Ġdem": 1596,
      "Ġensure": 1597,
      "Ġscient": 1598,
      "Ġcam": 1599,
      "ems": 1600,
      "ote": 1601,
      "Ġtimes": 1602,
      "Ġindust": 1603,
      "ended": 1604,
      "Ġkey": 1605,
      "az": 1606,
      "omes": 1607,
      "ee": 1608,
      "Ġmot": 1609,
      "Ġsystems": 1610,
      "Ġgive": 1611,
      "Ġfre": 1612,
      "aces": 1613,
      "Ġsens": 1614,
      "'m": 1615,
      "Ġanimals": 1616,
      "Ġusually": 1617,
      "Ġprofess": 1618,
      "Ġ=": 1619,
      "ips": 1620,
      "Ġessential": 1621,
      "Ġpost": 1622,
      "Ġenough": 1623,
      "Ġsurface": 1624,
      "Ġbig": 1625,
      "Ġteam": 1626,
      "Ġaccess": 1627,
      "Ġdisease": 1628,
      "orn": 1629,
      "Ġmonth": 1630,
      "ours": 1631,
      "ision": 1632,
      "ĠSh": 1633,
      "Ġbeg": 1634,
      "Ġmakes": 1635,
      "oes": 1636,
      "Ġdeterm": 1637,
      "Ġconditions": 1638,
      "Ġobject": 1639,
      "ĠWhich": 1640,
      "Ġchem": 1641,
      "Ġquality": 1642,
      "atic": 1643,
      "Ġeffective": 1644,
      "Ġoccur": 1645,
      "Ġrisk": 1646,
      "ton": 1647,
      "Ġsal": 1648,
      "ĠCl": 1649,
      "Ġhist": 1650,
      "Ġnon": 1651,
      "Ġspecial": 1652,
      "Ġside": 1653,
      "ency": 1654,
      "alk": 1655,
      "Ġdesc": 1656,
      "We": 1657,
      "Ġgroup": 1658,
      "outh": 1659,
      "----": 1660,
      "Ġcertain": 1661,
      "Ġoil": 1662,
      "Ġopp": 1663,
      "par": 1664,
      "Ġlist": 1665,
      "gn": 1666,
      "Ġorder": 1667,
      "urther": 1668,
      "ological": 1669,
      "Ġparticular": 1670,
      "af": 1671,
      "fort": 1672,
      "Ġcho": 1673,
      "Ġmaterials": 1674,
      "arc": 1675,
      "au": 1676,
      "ĠRe": 1677,
      "Ġline": 1678,
      "Ġ$": 1679,
      "view": 1680,
      "ples": 1681,
      "ĠCan": 1682,
      "bon": 1683,
      "Ġtechnology": 1684,
      "Ġengine": 1685,
      "Ġdig": 1686,
      "Ġz": 1687,
      "ories": 1688,
      "ĠInd": 1689,
      "Ġeffic": 1690,
      "ah": 1691,
      "oose": 1692,
      "NA": 1693,
      "Ġconsum": 1694,
      "Ġmill": 1695,
      "Ġimprove": 1696,
      "Ġbehav": 1697,
      "ring": 1698,
      "aut": 1699,
      "Ġsince": 1700,
      "Ġsound": 1701,
      "Ġprim": 1702,
      "ication": 1703,
      "oring": 1704,
      "ires": 1705,
      "Ġ&": 1706,
      "inc": 1707,
      "Ġlevels": 1708,
      "Ġwind": 1709,
      "cul": 1710,
      "Ġ[": 1711,
      "ĠWith": 1712,
      "hor": 1713,
      "Ġtoget": 1714,
      "Ġtogether": 1715,
      "Ġpressure": 1716,
      "olution": 1717,
      "Ġuntil": 1718,
      "ustom": 1719,
      "lu": 1720,
      "Ġweight": 1721,
      "asing": 1722,
      "Ġter": 1723,
      "Ġproblems": 1724,
      "Ġreport": 1725,
      "Ġeduc": 1726,
      "ĠBy": 1727,
      "ĠRes": 1728,
      "Ġrecomm": 1729,
      "fer": 1730,
      "ains": 1731,
      "Ġmar": 1732,
      "ables": 1733,
      "ately": 1734,
      "oint": 1735,
      "ĠBe": 1736,
      "Ġmil": 1737,
      "aster": 1738,
      "iting": 1739,
      "Ġcase": 1740,
      "Ġfamily": 1741,
      "When": 1742,
      "Ġnear": 1743,
      "let": 1744,
      "Ġshort": 1745,
      "sc": 1746,
      "Ġsuccess": 1747,
      "Ġaway": 1748,
      "self": 1749,
      "Ġfeed": 1750,
      "ĠNew": 1751,
      "Ġhaving": 1752,
      "Ġresults": 1753,
      "Ġmov": 1754,
      "As": 1755,
      "Ġworks": 1756,
      "Ġenc": 1757,
      "Ġsun": 1758,
      "pecially": 1759,
      "ored": 1760,
      "ury": 1761,
      "Ġworking": 1762,
      "ware": 1763,
      "Ġkind": 1764,
      "Ġname": 1765,
      "ĠThat": 1766,
      "Ġcomplete": 1767,
      "utes": 1768,
      "Ġnext": 1769,
      "Ġfore": 1770,
      "uture": 1771,
      "Ġchall": 1772,
      "Ġcult": 1773,
      "ember": 1774,
      "jor": 1775,
      "ither": 1776,
      "Ġproducts": 1777,
      "Ġsing": 1778,
      "Ġnecess": 1779,
      "Ġmaintain": 1780,
      "Ġrele": 1781,
      "omen": 1782,
      "Ġdays": 1783,
      "Ġperiod": 1784,
      "Ġsugg": 1785,
      "Ġincrease": 1786,
      "inter": 1787,
      "Ġalong": 1788,
      "work": 1789,
      "oney": 1790,
      "Ġtru": 1791,
      "You": 1792,
      "Ġcou": 1793,
      "Ġrepl": 1794,
      "por": 1795,
      "ctor": 1796,
      "ĠĠ": 1797,
      "fact": 1798,
      "Ġcomes": 1799,
      "Ġturn": 1800,
      "Ġquick": 1801,
      "ump": 1802,
      "Ġcourse": 1803,
      "Ġleg": 1804,
      "Ġmodel": 1805,
      "icult": 1806,
      "Ġhigher": 1807,
      "imes": 1808,
      "ĠAt": 1809,
      "Ġprote": 1810,
      "bit": 1811,
      "50": 1812,
      "Ġprotect": 1813,
      "agement": 1814,
      "Ġothers": 1815,
      "Ġlocal": 1816,
      "une": 1817,
      "âĢ¦": 1818,
      "ret": 1819,
      "Ġgrowth": 1820,
      "Ġlikely": 1821,
      "Ġearly": 1822,
      "Ġeasy": 1823,
      "Ġstrong": 1824,
      "Ġsimilar": 1825,
      "erc": 1826,
      "ured": 1827,
      "Ġfull": 1828,
      "ogn": 1829,
      "Ġchanges": 1830,
      "Ġrad": 1831,
      "Ġsocial": 1832,
      "Ġmach": 1833,
      "ĠSe": 1834,
      "Ġste": 1835,
      "not": 1836,
      "Ġlab": 1837,
      "light": 1838,
      "Ġreduce": 1839,
      "Ġtreatment": 1840,
      "Ġactually": 1841,
      "osp": 1842,
      "Ġsuggest": 1843,
      "ler": 1844,
      ".,": 1845,
      "Ġleast": 1846,
      "ĠUniversity": 1847,
      "uro": 1848,
      "19": 1849,
      "Ġbusiness": 1850,
      "Ġhealthy": 1851,
      "oor": 1852,
      "Ġgarden": 1853,
      "Ġvalue": 1854,
      "Ġfac": 1855,
      "ooks": 1856,
      "Ġgreen": 1857,
      "Ġfri": 1858,
      "There": 1859,
      "ators": 1860,
      "Ġlower": 1861,
      "Ġdoesn": 1862,
      "Ġsoft": 1863,
      "ised": 1864,
      "Ġdogs": 1865,
      "Ġrece": 1866,
      "Ġground": 1867,
      "ann": 1868,
      "aging": 1869,
      "Ġorig": 1870,
      "Ġsimple": 1871,
      "Ġissues": 1872,
      "Ġrole": 1873,
      "ivity": 1874,
      "Ġmajor": 1875,
      "Ġpred": 1876,
      "Ġ.": 1877,
      "Ġstra": 1878,
      "Ġi": 1879,
      "ches": 1880,
      "Ġwarm": 1881,
      "Ġespecially": 1882,
      "Ġans": 1883,
      "Ġreason": 1884,
      "Ġdry": 1885,
      "vious": 1886,
      "Ġreact": 1887,
      "Ġtur": 1888,
      "Ġassoci": 1889,
      "Ġ12": 1890,
      "atory": 1891,
      "rect": 1892,
      "Ġfrequ": 1893,
      "ream": 1894,
      "ĠTe": 1895,
      "Ġsum": 1896,
      "hem": 1897,
      "agn": 1898,
      "Ġresour": 1899,
      "ipp": 1900,
      "Ġlive": 1901,
      "Ġred": 1902,
      "Ġunique": 1903,
      "izing": 1904,
      "Ġcharacter": 1905,
      "Ġfield": 1906,
      "Ġcra": 1907,
      "Ġbro": 1908,
      "ĠDe": 1909,
      "Ġvir": 1910,
      "Ġfuture": 1911,
      "Ġproduction": 1912,
      "Ġinvest": 1913,
      "Ġfar": 1914,
      "Ġmind": 1915,
      "Ġwrit": 1916,
      "Ġnorm": 1917,
      "Ġmicro": 1918,
      "Ġabove": 1919,
      "ression": 1920,
      "ym": 1921,
      "Ġavoid": 1922,
      "Ġhim": 1923,
      "Ġacross": 1924,
      "Ġcustom": 1925,
      "Ġage": 1926,
      "Ġprob": 1927,
      "bo": 1928,
      "Ġfour": 1929,
      "An": 1930,
      "Ġways": 1931,
      "Ġcheck": 1932,
      "ames": 1933,
      "Ġthing": 1934,
      "ĠCon": 1935,
      "ived": 1936,
      "astic": 1937,
      "ledge": 1938,
      "Ġdiet": 1939,
      "verage": 1940,
      "Ġpie": 1941,
      "Ġ18": 1942,
      "side": 1943,
      "ilities": 1944,
      "Ġdone": 1945,
      "ission": 1946,
      "Ġvide": 1947,
      "usion": 1948,
      "Ġsafe": 1949,
      "Ġmarket": 1950,
      "Ġaccording": 1951,
      "Ġgiven": 1952,
      "Ġheart": 1953,
      "ĠSp": 1954,
      "ustain": 1955,
      "fect": 1956,
      "Ġnever": 1957,
      "chan": 1958,
      "Ġagainst": 1959,
      "Ġeat": 1960,
      "orth": 1961,
      "iple": 1962,
      "Ġbit": 1963,
      "ĠSome": 1964,
      "ffic": 1965,
      "Ġaffect": 1966,
      "though": 1967,
      "Ġhouse": 1968,
      "estions": 1969,
      "ĠZ": 1970,
      "Ġeye": 1971,
      "Ġdifficult": 1972,
      "Ġdamage": 1973,
      "Ġgas": 1974,
      "Ġflu": 1975,
      "most": 1976,
      "Ġcompon": 1977,
      "Ġobs": 1978,
      "Ġbegin": 1979,
      "idence": 1980,
      "lish": 1981,
      "Ġpaper": 1982,
      "Ġgre": 1983,
      "by": 1984,
      "ott": 1985,
      "Ġeffects": 1986,
      "com": 1987,
      "amm": 1988,
      "Ġskin": 1989,
      "Ġloss": 1990,
      "joy": 1991,
      "Ġclear": 1992,
      "Ġrepres": 1993,
      "anced": 1994,
      "Ġpublic": 1995,
      "Ġbook": 1996,
      "âĢĵ": 1997,
      "Ġsingle": 1998,
      "Ġpast": 1999,
      "Ġregular": 2000,
      "omet": 2001,
      "Ġabs": 2002,
      "Ġrespons": 2003,
      "ĠEn": 2004,
      "ĠCol": 2005,
      "Ġach": 2006,
      "Ġer": 2007,
      "yle": 2008,
      "Ġcool": 2009,
      "Ġbatter": 2010,
      "wards": 2011,
      "Ġterm": 2012,
      "Ġchemical": 2013,
      "Ġparts": 2014,
      "Ġleft": 2015,
      "Ġcontrib": 2016,
      "ER": 2017,
      "igns": 2018,
      "Ġsubst": 2019,
      "ĠYour": 2020,
      "Ġwhite": 2021,
      "Ġsays": 2022,
      "Ġhelps": 2023,
      "ibility": 2024,
      "Ġphysical": 2025,
      "Ġdetail": 2026,
      "Ġintern": 2027,
      "Ġlooking": 2028,
      "Ġdiscuss": 2029,
      "Ġbenefits": 2030,
      "12": 2031,
      "Ġview": 2032,
      "Ġland": 2033,
      "ising": 2034,
      "Ġelectric": 2035,
      "Ġpopular": 2036,
      "ĠBl": 2037,
      "Ġwide": 2038,
      "Ġcomplex": 2039,
      "uals": 2040,
      "Ġfactors": 2041,
      "lement": 2042,
      "Ġunderstanding": 2043,
      "Ġclose": 2044,
      "ploy": 2045,
      "Ġtraining": 2046,
      "Ġsource": 2047,
      "Ġresearc": 2048,
      "hing": 2049,
      "Ġwr": 2050,
      "avor": 2051,
      "for": 2052,
      "ptoms": 2053,
      "Ġclimate": 2054,
      "ĠPh": 2055,
      "Ġeither": 2056,
      "Ġnet": 2057,
      "ina": 2058,
      "Ġcondition": 2059,
      "pro": 2060,
      "Ġdesigned": 2061,
      "Ġdeg": 2062,
      "ope": 2063,
      "ification": 2064,
      "ĠâĢĶ": 2065,
      "lection": 2066,
      "Ġmass": 2067,
      "ensive": 2068,
      "Ġstress": 2069,
      "Ġamong": 2070,
      "Ġweek": 2071,
      "ruction": 2072,
      "Ġonce": 2073,
      "Ġthin": 2074,
      "Ġproduce": 2075,
      "Ġbal": 2076,
      "Ġexpect": 2077,
      "ĠOr": 2078,
      "Ġhold": 2079,
      "orts": 2080,
      "Ġability": 2081,
      "To": 2082,
      "Ġfurther": 2083,
      "Ġdescrib": 2084,
      "Ġallows": 2085,
      "Ġoffer": 2086,
      "ray": 2087,
      "Ġhyd": 2088,
      "Ġquestion": 2089,
      "Ġprovides": 2090,
      "Ġtoday": 2091,
      "alf": 2092,
      "Ġ30": 2093,
      "Ġanimal": 2094,
      "angu": 2095,
      "Ġenjoy": 2096,
      "ystem": 2097,
      "ufact": 2098,
      "Ġcru": 2099,
      "ĠUS": 2100,
      "Ġcarbon": 2101,
      "ortun": 2102,
      "like": 2103,
      "Ġwhether": 2104,
      "ĠOn": 2105,
      "Ġdraw": 2106,
      "Ġgetting": 2107,
      "sh": 2108,
      "duct": 2109,
      "Ġegg": 2110,
      "lished": 2111,
      "Ġspeed": 2112,
      "Ġindic": 2113,
      "ready": 2114,
      "Ġstop": 2115,
      "Ġcomputer": 2116,
      "Ġskills": 2117,
      "Ġparent": 2118,
      "idd": 2119,
      "Ġfall": 2120,
      "Ġvers": 2121,
      "istic": 2122,
      "Ġmatter": 2123,
      "Ġwild": 2124,
      "Ġscience": 2125,
      "Ġinteract": 2126,
      "For": 2127,
      "Ġpet": 2128,
      "raph": 2129,
      "Ġpercent": 2130,
      "ery": 2131,
      "ales": 2132,
      "Ġauthor": 2133,
      "Ġgame": 2134,
      "ae": 2135,
      "man": 2136,
      "Ġill": 2137,
      "Ġnecessary": 2138,
      "ĠInst": 2139,
      "Ġbelow": 2140,
      "Ġveh": 2141,
      "ming": 2142,
      "Ġvariety": 2143,
      "Ġcoll": 2144,
      "Ġenh": 2145,
      "Wh": 2146,
      "Ġlif": 2147,
      "mit": 2148,
      "Ġdifference": 2149,
      "ength": 2150,
      "aching": 2151,
      "ik": 2152,
      "ĠOne": 2153,
      "Ġhours": 2154,
      "Ġblack": 2155,
      "Ġsmo": 2156,
      "ried": 2157,
      "Ġknowledge": 2158,
      "Ġimage": 2159,
      "resh": 2160,
      "Ġcrit": 2161,
      "Ġpurp": 2162,
      "Ġperformance": 2163,
      "Ġmechan": 2164,
      "Ġexperien": 2165,
      "lying": 2166,
      "Ġwood": 2167,
      "ird": 2168,
      "Ġlove": 2169,
      "rel": 2170,
      "Ġneeded": 2171,
      "Ġtell": 2172,
      "Ġveget": 2173,
      "itch": 2174,
      "Ġ15": 2175,
      "Ġdoing": 2176,
      "Ġox": 2177,
      "Ġalready": 2178,
      "rate": 2179,
      "ges": 2180,
      "ores": 2181,
      "Ġexist": 2182,
      "ument": 2183,
      "Ġindividual": 2184,
      "Ġpersonal": 2185,
      "Ġmix": 2186,
      "ĠIm": 2187,
      "ĠEng": 2188,
      "aken": 2189,
      "ask": 2190,
      "Ġconcer": 2191,
      "utions": 2192,
      "ney": 2193,
      "Ġevent": 2194,
      "Ġfeatures": 2195,
      "Ġglob": 2196,
      "edi": 2197,
      "iques": 2198,
      "Ġhappen": 2199,
      "Ġfru": 2200,
      "Ġselect": 2201,
      "Ġconnect": 2202,
      "overed": 2203,
      "Ġbrain": 2204,
      "leep": 2205,
      "Ġinit": 2206,
      "Ġcontent": 2207,
      "Ġhistory": 2208,
      "Ġbacter": 2209,
      "rown": 2210,
      "ysis": 2211,
      "ging": 2212,
      "Ġbuy": 2213,
      "Ġfu": 2214,
      "Ġresist": 2215,
      "Ġsn": 2216,
      "erence": 2217,
      "Ġsafety": 2218,
      "Ġrecord": 2219,
      "Ġcommunity": 2220,
      "Ġemb": 2221,
      "Ch": 2222,
      "Ġtree": 2223,
      "eral": 2224,
      "Ġmeasure": 2225,
      "just": 2226,
      "Ġrate": 2227,
      "Ġask": 2228,
      "ows": 2229,
      "ĠNo": 2230,
      "ĠAI": 2231,
      "Ġprop": 2232,
      "Ġmo": 2233,
      "ĠAll": 2234,
      "ograp": 2235,
      "ditional": 2236,
      "Ġrequired": 2237,
      "Ġever": 2238,
      "Ġseen": 2239,
      "Ġsustain": 2240,
      "ply": 2241,
      "osing": 2242,
      "Ġpath": 2243,
      "Ġindustry": 2244,
      "Ġbreak": 2245,
      "Ġleaves": 2246,
      "ront": 2247,
      "ule": 2248,
      "Ġsuper": 2249,
      "Ġaddress": 2250,
      "Ġtot": 2251,
      "Ġhot": 2252,
      "vert": 2253,
      "ibr": 2254,
      "Ġquestions": 2255,
      "Ġonline": 2256,
      "**": 2257,
      "Ġstrateg": 2258,
      "Ġ100": 2259,
      "Ġstructure": 2260,
      "Ġactivities": 2261,
      "Ġsymptoms": 2262,
      "Ġtools": 2263,
      "Ġslow": 2264,
      "Ġuser": 2265,
      "ilt": 2266,
      "Ġneg": 2267,
      "ĠEar": 2268,
      "30": 2269,
      "Ġfat": 2270,
      "Ġmanufact": 2271,
      "Ġinside": 2272,
      "ctions": 2273,
      "Ġtar": 2274,
      "nam": 2275,
      "iment": 2276,
      "app": 2277,
      "Ġlonger": 2278,
      "Ġchalleng": 2279,
      "Ġbuilding": 2280,
      "Ġminim": 2281,
      "Ġself": 2282,
      "reng": 2283,
      "aling": 2284,
      "aps": 2285,
      "Ġpan": 2286,
      "Ġmethods": 2287,
      "fully": 2288,
      "Ġpay": 2289,
      "Ġarticle": 2290,
      "upp": 2291,
      "aving": 2292,
      "conom": 2293,
      "Ġidea": 2294,
      "Ġresearchers": 2295,
      "Ġcorrect": 2296,
      "ervation": 2297,
      "nces": 2298,
      "Ġhumans": 2299,
      "Ġport": 2300,
      "Ġopportun": 2301,
      "Ġexerc": 2302,
      "Ġcontact": 2303,
      "Ġactivity": 2304,
      "way": 2305,
      "Ġmat": 2306,
      "Ġgeneral": 2307,
      "Ġdeep": 2308,
      "Ġwhole": 2309,
      "ites": 2310,
      "Ġseason": 2311,
      "Ġrelations": 2312,
      "Ġtaking": 2313,
      "Ġbar": 2314,
      "Ġapproach": 2315,
      "11": 2316,
      "sel": 2317,
      "ĠQu": 2318,
      "Ġliving": 2319,
      "ties": 2320,
      "ĠAmerican": 2321,
      "gs": 2322,
      "use": 2323,
      "Ġpositive": 2324,
      "Ġappear": 2325,
      "Ġmonths": 2326,
      "Ġcompany": 2327,
      "Ġposition": 2328,
      "gar": 2329,
      "Ġvac": 2330,
      "Ġremov": 2331,
      "Ġprec": 2332,
      "ura": 2333,
      "Ġnature": 2334,
      "Ġbehavior": 2335,
      "Ġenvironmental": 2336,
      "erve": 2337,
      "idered": 2338,
      "Ġindividuals": 2339,
      "Ġmole": 2340,
      "inary": 2341,
      "room": 2342,
      "illed": 2343,
      "Ġperfect": 2344,
      "Ġfarm": 2345,
      "Ġtypically": 2346,
      "ises": 2347,
      "Ġeasily": 2348,
      "Ġfit": 2349,
      "Ġelectr": 2350,
      "Ġprint": 2351,
      "Ġtrees": 2352,
      "Ġinstall": 2353,
      "Ġencou": 2354,
      "Ġmention": 2355,
      "Ġsomeone": 2356,
      "ged": 2357,
      "Ġintrodu": 2358,
      "urs": 2359,
      "Ġsitu": 2360,
      "ume": 2361,
      "amp": 2362,
      "aches": 2363,
      "Ġcases": 2364,
      "Ġyoung": 2365,
      "selves": 2366,
      "Ġroom": 2367,
      "Ġetc": 2368,
      "iency": 2369,
      "cell": 2370,
      "Ġsqu": 2371,
      "Ġtravel": 2372,
      "Ġmagn": 2373,
      "Ġisn": 2374,
      "ĠCent": 2375,
      "Ġla": 2376,
      "Ġut": 2377,
      "Ġlaw": 2378,
      "Ġmoney": 2379,
      "Ġhor": 2380,
      "Ġassociated": 2381,
      "ĠWor": 2382,
      "ding": 2383,
      "reme": 2384,
      "Ġanswer": 2385,
      "Al": 2386,
      "Ġgrowing": 2387,
      "Ġjob": 2388,
      "Ġmeet": 2389,
      "Ġentire": 2390,
      "Ġsolution": 2391,
      "Ġprep": 2392,
      "Ġwall": 2393,
      "Ġminutes": 2394,
      "IN": 2395,
      "Ġconsidered": 2396,
      "amin": 2397,
      "osis": 2398,
      "Ġdevice": 2399,
      "verse": 2400,
      "lor": 2401,
      "het": 2402,
      "Ġgot": 2403,
      "Ġbring": 2404,
      "Ġjour": 2405,
      "Ġextra": 2406,
      "Ġlater": 2407,
      "Ġtechniques": 2408,
      "Ġvideo": 2409,
      "based": 2410,
      "Ġpoll": 2411,
      "eter": 2412,
      "anguage": 2413,
      "Ġsam": 2414,
      "Ġrather": 2415,
      "ze": 2416,
      "Ġmillion": 2417,
      "Ġcollect": 2418,
      "Ġoverall": 2419,
      "ulations": 2420,
      "rams": 2421,
      "Ġcancer": 2422,
      "Ġaud": 2423,
      "ĠNe": 2424,
      "Ġinteg": 2425,
      "____": 2426,
      "Ġrepresent": 2427,
      "Ġresources": 2428,
      "Ġcrucial": 2429,
      "Ġmanagement": 2430,
      "Ġcold": 2431,
      "Ġmedical": 2432,
      "Ġharm": 2433,
      "Ġmen": 2434,
      "igure": 2435,
      "Ġprimary": 2436,
      "Ġrecogn": 2437,
      "So": 2438,
      "aced": 2439,
      "Ġcapt": 2440,
      "Ġstreng": 2441,
      "ĠWhile": 2442,
      "ival": 2443,
      "uit": 2444,
      "uck": 2445,
      "Ġgover": 2446,
      "ĠLe": 2447,
      "ene": 2448,
      "Ġsepar": 2449,
      "Ġcreating": 2450,
      "ĠCO": 2451,
      "Ġinflu": 2452,
      "Ġpatients": 2453,
      "Ġstay": 2454,
      "ĠDr": 2455,
      "Ġcover": 2456,
      "ĠShe": 2457,
      "iation": 2458,
      "Ġing": 2459,
      "Ġservice": 2460,
      "Ġhowever": 2461,
      "ĠCar": 2462,
      "Ġuses": 2463,
      "Ġaverage": 2464,
      "Ġexc": 2465,
      "Ġchoose": 2466,
      "Ġbeaut": 2467,
      "yl": 2468,
      "ĠX": 2469,
      "Ġrelationship": 2470,
      "Ġpopulation": 2471,
      "Th": 2472,
      "âĢĿ": 2473,
      "Ġtarget": 2474,
      "Ġquickly": 2475,
      "eding": 2476,
      "Ġprofessional": 2477,
      "Ġsense": 2478,
      "Ġyourself": 2479,
      "ES": 2480,
      "Ġsubject": 2481,
      "val": 2482,
      "Ġwar": 2483,
      "onst": 2484,
      "ese": 2485,
      "Ġprotein": 2486,
      "Ġthroughout": 2487,
      "play": 2488,
      "xim": 2489,
      "lex": 2490,
      "oll": 2491,
      "Ġmultiple": 2492,
      "Ġemploy": 2493,
      "Ġoptions": 2494,
      "Ġfund": 2495,
      "ounds": 2496,
      "rated": 2497,
      "Ġconcept": 2498,
      "aged": 2499,
      "Ġincludes": 2500,
      "Ġthought": 2501,
      "Ġnormal": 2502,
      "Ġbirds": 2503,
      "Ġfoot": 2504,
      "era": 2505,
      "aily": 2506,
      "Ġappl": 2507,
      "Ġoutside": 2508,
      "Ġsimply": 2509,
      "Ġwomen": 2510,
      "mb": 2511,
      "erous": 2512,
      "Ġconsist": 2513,
      "Ġincreased": 2514,
      "Ġcomfort": 2515,
      "uff": 2516,
      "Ġidentify": 2517,
      "AT": 2518,
      "Ġprobably": 2519,
      "Ġsleep": 2520,
      "cks": 2521,
      "Ġacid": 2522,
      "Ġeconom": 2523,
      "Ġpack": 2524,
      "icles": 2525,
      "Ġtakes": 2526,
      "Ġpractice": 2527,
      "Ġcreated": 2528,
      "Ġcannot": 2529,
      "Ġhalf": 2530,
      "ĠComp": 2531,
      "Ġdeveloped": 2532,
      "15": 2533,
      "Ġur": 2534,
      "Ġec": 2535,
      "Ġbad": 2536,
      "earch": 2537,
      "Ġissue": 2538,
      "Ġ...": 2539,
      "Ġcop": 2540,
      "ĠComm": 2541,
      "ipment": 2542,
      "Ġrelated": 2543,
      "ils": 2544,
      "Ġgovern": 2545,
      "sect": 2546,
      "Ġadult": 2547,
      "Ġtend": 2548,
      "Ġnight": 2549,
      "Ġcook": 2550,
      "Ġheav": 2551,
      "Ġstudies": 2552,
      "Ġeyes": 2553,
      "aff": 2554,
      "Ġ50": 2555,
      "Ġfast": 2556,
      "Ġoptim": 2557,
      "Ġfeet": 2558,
      "Ġparticip": 2559,
      "Ġlayer": 2560,
      "urope": 2561,
      "Ġcompan": 2562,
      "Ġbur": 2563,
      "lease": 2564,
      "Ġalmost": 2565,
      "ĠDo": 2566,
      "rict": 2567,
      "Ġfram": 2568,
      "Ġwaste": 2569,
      "Ġsat": 2570,
      "Ġwebs": 2571,
      "ively": 2572,
      "Ġservices": 2573,
      "Ġcauses": 2574,
      "Ġcompet": 2575,
      "ison": 2576,
      "Ġelements": 2577,
      "Ġrob": 2578,
      "Ġmachine": 2579,
      "Ġquant": 2580,
      "Ġinstead": 2581,
      "ellow": 2582,
      "AR": 2583,
      "Ġsomet": 2584,
      "cre": 2585,
      "Ġwinter": 2586,
      "Ġmodern": 2587,
      "Ġann": 2588,
      "Ġremain": 2589,
      "Ġang": 2590,
      "Ġfive": 2591,
      "elling": 2592,
      "cies": 2593,
      "Ġfoods": 2594,
      "Ġlarger": 2595,
      "Ġeducation": 2596,
      "Ġpri": 2597,
      "Ġlog": 2598,
      "ĠUnited": 2599,
      "augh": 2600,
      "onse": 2601,
      "Ġteac": 2602,
      "Ġaccount": 2603,
      "Ġapplications": 2604,
      "abor": 2605,
      "Ġglobal": 2606,
      "aim": 2607,
      "Ġsil": 2608,
      "Ġattention": 2609,
      "Ġaltern": 2610,
      "Ġincreasing": 2611,
      "urity": 2612,
      "itor": 2613,
      "itud": 2614,
      "Ġtraditional": 2615,
      "Ġlength": 2616,
      "Ġextreme": 2617,
      "ift": 2618,
      "rogen": 2619,
      "Ġscientists": 2620,
      "Ġsite": 2621,
      "Ġestab": 2622,
      "Ġtotal": 2623,
      "Ġshows": 2624,
      "Ġshown": 2625,
      "Ġcompared": 2626,
      "Ġhabit": 2627,
      "Ġpict": 2628,
      "mon": 2629,
      "Ġcountry": 2630,
      "rig": 2631,
      "sy": 2632,
      "ĠHere": 2633,
      "Ġdetermine": 2634,
      "Ġshape": 2635,
      "Ġbattery": 2636,
      "Ġge": 2637,
      "min": 2638,
      "Ġdom": 2639,
      "ĠMed": 2640,
      "ED": 2641,
      "nov": 2642,
      "Ġwa": 2643,
      "Ġsometimes": 2644,
      "Ġeverything": 2645,
      "Ġbasic": 2646,
      "Ġfail": 2647,
      "oh": 2648,
      "ners": 2649,
      "Ġautom": 2650,
      "Ġbab": 2651,
      "ĠNational": 2652,
      "Ġanything": 2653,
      "ropri": 2654,
      "\".": 2655,
      "ĠUs": 2656,
      "ograph": 2657,
      "Ġ199": 2658,
      "Ġremove": 2659,
      "Ġchoice": 2660,
      "Ġtrue": 2661,
      "Ġproviding": 2662,
      "Ġweather": 2663,
      "Ġefficient": 2664,
      "ground": 2665,
      "Ġoffers": 2666,
      "asons": 2667,
      "Ġcomponents": 2668,
      "ians": 2669,
      "Ġyet": 2670,
      "Ġfib": 2671,
      "rad": 2672,
      "asc": 2673,
      "ned": 2674,
      "Ġbelie": 2675,
      "Ġspread": 2676,
      "ĠApp": 2677,
      "Ġfuel": 2678,
      "gest": 2679,
      "Ġadvant": 2680,
      "ĠCont": 2681,
      "Ġadjust": 2682,
      "Ġcaused": 2683,
      "Ġstory": 2684,
      "Ġdevices": 2685,
      "acks": 2686,
      "Ġrelative": 2687,
      "where": 2688,
      "Ġfem": 2689,
      "ON": 2690,
      "ement": 2691,
      "Ġadapt": 2692,
      "Ġface": 2693,
      "Ġanalysis": 2694,
      "Ġhun": 2695,
      "Ad": 2696,
      "Ġseem": 2697,
      "ĠTr": 2698,
      "umb": 2699,
      "Ġgenerally": 2700,
      "ĠEurope": 2701,
      "Ġwon": 2702,
      "Ġbox": 2703,
      "izes": 2704,
      "Ġfresh": 2705,
      "Ġsurv": 2706,
      "Ġtaken": 2707,
      "Ġquite": 2708,
      "go": 2709,
      "Ġexact": 2710,
      "Ġnutri": 2711,
      "rip": 2712,
      "ronic": 2713,
      "Ġprevious": 2714,
      "Ġexplain": 2715,
      "ĠEarth": 2716,
      "Ġmetal": 2717,
      "Ġones": 2718,
      "Ġterms": 2719,
      "One": 2720,
      "AS": 2721,
      "Ġstandard": 2722,
      "ley": 2723,
      "ules": 2724,
      "Ġassess": 2725,
      "cean": 2726,
      "Ġconduct": 2727,
      "Ġ16": 2728,
      "Ġsoftware": 2729,
      "Ġstarted": 2730,
      "ched": 2731,
      "OT": 2732,
      "hib": 2733,
      "imately": 2734,
      "Ġmedic": 2735,
      "icial": 2736,
      "ĠCal": 2737,
      "ension": 2738,
      "isms": 2739,
      "Ġgroups": 2740,
      "Ġcontinu": 2741,
      "Ġsuit": 2742,
      "istics": 2743,
      "Ġequipment": 2744,
      "16": 2745,
      "Ġball": 2746,
      "ext": 2747,
      "hern": 2748,
      "ests": 2749,
      "Ġinj": 2750,
      "Ġmom": 2751,
      "Ġfront": 2752,
      "ening": 2753,
      "icy": 2754,
      "Ġbacteria": 2755,
      "Ġdark": 2756,
      "rapy": 2757,
      "ino": 2758,
      "Ġago": 2759,
      "Ġproperties": 2760,
      "Ġlanguage": 2761,
      "Ġshare": 2762,
      "ights": 2763,
      "Ġtrying": 2764,
      "Ġsummer": 2765,
      "oses": 2766,
      "ĠAfter": 2767,
      "li": 2768,
      "Ġlo": 2769,
      "Ġreading": 2770,
      "Ġbelieve": 2771,
      "Ġkids": 2772,
      "osition": 2773,
      "ipe": 2774,
      "18": 2775,
      "ography": 2776,
      "Ġprovided": 2777,
      "ĠCons": 2778,
      "Ġitself": 2779,
      "arily": 2780,
      "Ġarr": 2781,
      "Ġbott": 2782,
      "Ġtable": 2783,
      "Ġdy": 2784,
      "Ġice": 2785,
      "ĠAm": 2786,
      "Ġwords": 2787,
      "ĠAf": 2788,
      "Ġaspect": 2789,
      "Ġpurpose": 2790,
      "life": 2791,
      "Ġthemselves": 2792,
      "Ġfire": 2793,
      "wh": 2794,
      "ecause": 2795,
      "Ġmeat": 2796,
      "Ġdistrib": 2797,
      "Ġdigital": 2798,
      "Ġresponse": 2799,
      "Ġregard": 2800,
      "Ġachieve": 2801,
      "Ġrequires": 2802,
      "alking": 2803,
      "Ġsea": 2804,
      "Ġobserv": 2805,
      "ditionally": 2806,
      "Ġgain": 2807,
      "ID": 2808,
      "ĠDes": 2809,
      "Ġdaily": 2810,
      "Ġforce": 2811,
      "iot": 2812,
      "Ġsteps": 2813,
      "Ġaction": 2814,
      "acy": 2815,
      "Ġdoc": 2816,
      "Ġtiss": 2817,
      "Ġmentioned": 2818,
      "Ġrot": 2819,
      "Ġdru": 2820,
      "ĠMan": 2821,
      "Ġload": 2822,
      "Ġbase": 2823,
      "ĠCo": 2824,
      "Ġencoura": 2825,
      "Ġ14": 2826,
      "14": 2827,
      "Ġir": 2828,
      "Ġdefin": 2829,
      "Ġ202": 2830,
      "Ġrout": 2831,
      "Ġmess": 2832,
      "Ġcode": 2833,
      "Pro": 2834,
      "osure": 2835,
      "ĠHealth": 2836,
      "Ġbehind": 2837,
      "Ġsmaller": 2838,
      "Ġglass": 2839,
      "Ġmaxim": 2840,
      "Ġswe": 2841,
      "Ġemot": 2842,
      "aries": 2843,
      "Ġadditional": 2844,
      "Ġparticularly": 2845,
      "ĠâĢľ": 2846,
      "Ġadded": 2847,
      "Ġplastic": 2848,
      "ĠPr": 2849,
      "Ġfamil": 2850,
      "Ġdiseases": 2851,
      "Ġcolors": 2852,
      "ĠÂ": 2853,
      "Ġlink": 2854,
      "tenance": 2855,
      "Ġblue": 2856,
      "Ġexplore": 2857,
      "Ġwond": 2858,
      "Ġtou": 2859,
      "ences": 2860,
      "Ġoption": 2861,
      "Ġ/": 2862,
      "ĠStates": 2863,
      "Ġmoist": 2864,
      "ai": 2865,
      "Ġparents": 2866,
      "inct": 2867,
      "ccording": 2868,
      "Ġdirectly": 2869,
      "emic": 2870,
      "Ġcapac": 2871,
      "ĠDNA": 2872,
      "ricult": 2873,
      "Ġrespect": 2874,
      "Ġeggs": 2875,
      "'d": 2876,
      "Ġ+": 2877,
      "Ġtowards": 2878,
      "Ġhighly": 2879,
      "Ġassist": 2880,
      "Ġimplement": 2881,
      "ulate": 2882,
      "pid": 2883,
      "time": 2884,
      "ĠOf": 2885,
      "Ġnegative": 2886,
      "Ġpoints": 2887,
      "ĠStud": 2888,
      "nter": 2889,
      "ĠMay": 2890,
      "Ġregion": 2891,
      "Ġingred": 2892,
      "Ġoutput": 2893,
      "Ġinsect": 2894,
      "Ġcard": 2895,
      "Ġmilk": 2896,
      "Ġdest": 2897,
      "ĠAust": 2898,
      "Ġinvolved": 2899,
      "rition": 2900,
      "Ġconcent": 2901,
      "Ġweeks": 2902,
      "reg": 2903,
      "iring": 2904,
      "Ġvehicle": 2905,
      "Ġevidence": 2906,
      "oon": 2907,
      "iddle": 2908,
      "Ex": 2909,
      "isc": 2910,
      "Ġleading": 2911,
      "vant": 2912,
      "iding": 2913,
      "Ġcats": 2914,
      "--------": 2915,
      "Ġmodels": 2916,
      "Ġdiagn": 2917,
      "oles": 2918,
      "Ġimages": 2919,
      "ades": 2920,
      "sequ": 2921,
      "head": 2922,
      "Why": 2923,
      "Ġreach": 2924,
      "Ġaware": 2925,
      "Ġcontinue": 2926,
      "Ġproduced": 2927,
      "Ġreview": 2928,
      "oph": 2929,
      "alu": 2930,
      "Ġdou": 2931,
      "ror": 2932,
      "Ġkit": 2933,
      "ĠPre": 2934,
      "Ġpoly": 2935,
      "water": 2936,
      "Ġeating": 2937,
      "Ġapplication": 2938,
      "Ġsources": 2939,
      "Ġsugar": 2940,
      "Ġmembers": 2941,
      "But": 2942,
      "Ġeveryone": 2943,
      "Ġappropri": 2944,
      "ĠMy": 2945,
      "Ġ11": 2946,
      "aur": 2947,
      "Ġstudent": 2948,
      "illing": 2949,
      "Ġpurch": 2950,
      "ma": 2951,
      "ĠNot": 2952,
      "ĠAfric": 2953,
      "Ġvit": 2954,
      "ĠNorth": 2955,
      "....": 2956,
      "back": 2957,
      "Ġrecommend": 2958,
      "Ġhar": 2959,
      "raft": 2960,
      "Ġstat": 2961,
      "Ġbul": 2962,
      "Ġsignal": 2963,
      "rist": 2964,
      "Ġteeth": 2965,
      "Ġsearch": 2966,
      "Ġful": 2967,
      "clusion": 2968,
      "vere": 2969,
      "Ġtransform": 2970,
      "Ġstrength": 2971,
      "Ġemerg": 2972,
      "Ġx": 2973,
      "yp": 2974,
      "new": 2975,
      "Ġblock": 2976,
      "artment": 2977,
      "Ġdecre": 2978,
      "ĠInt": 2979,
      "wor": 2980,
      "cri": 2981,
      "cles": 2982,
      "Ġinput": 2983,
      "Ġitems": 2984,
      "Ġcalcul": 2985,
      "Ġ25": 2986,
      "ĠGu": 2987,
      "fl": 2988,
      "ĠTra": 2989,
      "anks": 2990,
      "Ġsolar": 2991,
      "Ġgoal": 2992,
      "Ġlives": 2993,
      "ĠFe": 2994,
      "Ġpret": 2995,
      "Ġtransport": 2996,
      "Ġgenetic": 2997,
      "Ġrecommended": 2998,
      "Ġmor": 2999,
      "orpor": 3000,
      "Ġprior": 3001,
      "Ġguide": 3002,
      "Ġhair": 3003,
      "nal": 3004,
      "Ġspeak": 3005,
      "Ġprefer": 3006,
      "Ġlines": 3007,
      "ĠMe": 3008,
      "Ġrecent": 3009,
      "rid": 3010,
      "Ġexercise": 3011,
      "unch": 3012,
      "Ġlands": 3013,
      "itation": 3014,
      "Ġforest": 3015,
      "Ġeasier": 3016,
      "Ġevents": 3017,
      "Ġrunning": 3018,
      "Ġelse": 3019,
      "ops": 3020,
      "ĠYes": 3021,
      "Ġbed": 3022,
      "ĠAre": 3023,
      "Ġseeds": 3024,
      "Sh": 3025,
      "Ġprocesses": 3026,
      "Ġtemperatures": 3027,
      "Ġliqu": 3028,
      "Ġdidn": 3029,
      "Ġconstant": 3030,
      "Ġbreat": 3031,
      "Ġscreen": 3032,
      "ĠAss": 3033,
      "Ġbrand": 3034,
      "AC": 3035,
      "att": 3036,
      "ĠKe": 3037,
      "ucle": 3038,
      "Ġnumbers": 3039,
      "Ġdang": 3040,
      "Ġstore": 3041,
      "Ġuseful": 3042,
      "Ġmeaning": 3043,
      "Ġtips": 3044,
      "Ġreplace": 3045,
      "Ġroad": 3046,
      "Ġword": 3047,
      "ĠGen": 3048,
      "Ġgreater": 3049,
      "ung": 3050,
      "ĠSchool": 3051,
      "Ġaim": 3052,
      "Ġwebsite": 3053,
      "ĠâĢ¦": 3054,
      "ancy": 3055,
      "sp": 3056,
      "Ġearth": 3057,
      "Ġcountries": 3058,
      "Ġcompletely": 3059,
      "ĠScience": 3060,
      "ocks": 3061,
      "ster": 3062,
      "icate": 3063,
      "ygen": 3064,
      "Ġcontroll": 3065,
      "ociety": 3066,
      "issions": 3067,
      "Ġmovement": 3068,
      "abric": 3069,
      "set": 3070,
      "Ġactive": 3071,
      "rast": 3072,
      "Ġflowers": 3073,
      "ensity": 3074,
      "Ġsand": 3075,
      "OR": 3076,
      "iny": 3077,
      "pper": 3078,
      "EN": 3079,
      "Ġ,": 3080,
      "Ġanaly": 3081,
      "Ġcommunication": 3082,
      "oming": 3083,
      "Ġcry": 3084,
      "ĠMore": 3085,
      "come": 3086,
      "Ġcross": 3087,
      "Ġsequ": 3088,
      "Ġinitial": 3089,
      "AN": 3090,
      "Ġunit": 3091,
      "Ġsupply": 3092,
      "terns": 3093,
      "epend": 3094,
      "rial": 3095,
      "vest": 3096,
      "Is": 3097,
      "ĠMost": 3098,
      "Ġclaim": 3099,
      "Ġprinc": 3100,
      "Ġdeath": 3101,
      "Ġbalance": 3102,
      "aks": 3103,
      "irm": 3104,
      "Ġvalues": 3105,
      "orage": 3106,
      "Ġrefer": 3107,
      "bol": 3108,
      "Ġvisual": 3109,
      "Ġfix": 3110,
      "Ġthreat": 3111,
      "Ġmedia": 3112,
      "load": 3113,
      "Ġserious": 3114,
      "Ġpiece": 3115,
      "IS": 3116,
      "Ġfriend": 3117,
      "Ġ17": 3118,
      "Ġreflect": 3119,
      "ÂŃ": 3120,
      "iles": 3121,
      "Ġseries": 3122,
      "Ġproperly": 3123,
      "Ġstyle": 3124,
      "Ġtalk": 3125,
      "Ġthick": 3126,
      "Ġusers": 3127,
      "Ġspring": 3128,
      "Ġalg": 3129,
      "na": 3130,
      "uted": 3131,
      "Ġarg": 3132,
      "Ġcritical": 3133,
      "sych": 3134,
      "Ġcarry": 3135,
      "imin": 3136,
      "Ġsix": 3137,
      "Ġfert": 3138,
      "Ġefficiency": 3139,
      "istry": 3140,
      "Ġmemory": 3141,
      "iful": 3142,
      "Ġhands": 3143,
      "Ġ40": 3144,
      "Ġpatient": 3145,
      "Ġwear": 3146,
      ".)": 3147,
      "itute": 3148,
      "13": 3149,
      "Ġprograms": 3150,
      "ellig": 3151,
      "tings": 3152,
      "ĠFrom": 3153,
      "Ġbenefit": 3154,
      "Ġcontains": 3155,
      "Ġchallenges": 3156,
      "rees": 3157,
      "Ġguid": 3158,
      "ached": 3159,
      "Ġsus": 3160,
      "Ġdrive": 3161,
      "Ġ--": 3162,
      "Ġabsor": 3163,
      "Ġprojects": 3164,
      "Ġcamera": 3165,
      "Ġlocation": 3166,
      "Ġvisit": 3167,
      "Ġplat": 3168,
      "ĠGo": 3169,
      "Ġgoes": 3170,
      "Ġinstruct": 3171,
      "Ġforms": 3172,
      "Ġmoving": 3173,
      "fficient": 3174,
      "ĠDep": 3175,
      "Ġbuilt": 3176,
      "Ġdeal": 3177,
      "Ġcosts": 3178,
      "Ġbag": 3179,
      "Ġgovernment": 3180,
      "Ġpatterns": 3181,
      "Ġevolution": 3182,
      "Ġdepending": 3183,
      "Be": 3184,
      "elt": 3185,
      "Ġscientific": 3186,
      "Ġcompanies": 3187,
      "ightly": 3188,
      "wise": 3189,
      "Ġdemonst": 3190,
      "Ġvirus": 3191,
      "40": 3192,
      "Ġprice": 3193,
      "Ġfriends": 3194,
      "abet": 3195,
      "Con": 3196,
      "Ġchick": 3197,
      "Ġbird": 3198,
      "Ġmusic": 3199,
      "Ġorganic": 3200,
      "Ġleave": 3201,
      "Ġallowing": 3202,
      "Ġimmedi": 3203,
      "Ġdeveloping": 3204,
      "Ġmental": 3205,
      "oe": 3206,
      "board": 3207,
      "ĠMany": 3208,
      "Ġseems": 3209,
      "Ġfruit": 3210,
      "iable": 3211,
      "\",": 3212,
      "rum": 3213,
      "ĠAustral": 3214,
      "Ġdisplay": 3215,
      "Ġtub": 3216,
      "Ġsurround": 3217,
      "Cl": 3218,
      "Ġreasons": 3219,
      "Ġ13": 3220,
      "Ġcommonly": 3221,
      "Ġhappens": 3222,
      "term": 3223,
      "Ġwatch": 3224,
      "Ġgets": 3225,
      "ĠSouth": 3226,
      "25": 3227,
      "Ġattract": 3228,
      "atives": 3229,
      "Ġlimited": 3230,
      "Can": 3231,
      "rs": 3232,
      "ocol": 3233,
      "60": 3234,
      "Ġdirection": 3235,
      "Ġenhance": 3236,
      "ĠMar": 3237,
      "ĠAmerica": 3238,
      "hens": 3239,
      "ĠUse": 3240,
      "Ġinnov": 3241,
      "ĠPe": 3242,
      "rec": 3243,
      "airs": 3244,
      "Ġsuff": 3245,
      "Ġtheory": 3246,
      "ĠWhy": 3247,
      "odies": 3248,
      "ĠThen": 3249,
      "eration": 3250,
      "itude": 3251,
      "ĠWorld": 3252,
      "ping": 3253,
      "ĠAb": 3254,
      "Ġmaintenance": 3255,
      "Ġpage": 3256,
      "ula": 3257,
      "Ġnetwork": 3258,
      "Ġappropriate": 3259,
      "Ġdistance": 3260,
      "Ġresistance": 3261,
      "Ġstates": 3262,
      "overy": 3263,
      "Ġprotection": 3264,
      "Ġmotor": 3265,
      "Ġpretty": 3266,
      "Ġgar": 3267,
      "Ġvacc": 3268,
      "Ġevalu": 3269,
      "17": 3270,
      "onds": 3271,
      "uge": 3272,
      "Ġgrass": 3273,
      "Ġoriginal": 3274,
      "Ġimportance": 3275,
      "Ġce": 3276,
      "Ġremember": 3277,
      "Ġpen": 3278,
      "Ġreturn": 3279,
      "Ġbecomes": 3280,
      "Ġpick": 3281,
      "Ġupon": 3282,
      "Ġfine": 3283,
      "ĠResearch": 3284,
      "mosp": 3285,
      "Ġpublished": 3286,
      "cape": 3287,
      "Ġther": 3288,
      "Ġvary": 3289,
      "ologies": 3290,
      "Ġproced": 3291,
      "Ġobjects": 3292,
      "Ġsave": 3293,
      "Ġideas": 3294,
      "Ġrat": 3295,
      "Ġsigns": 3296,
      "irt": 3297,
      "Ġorigin": 3298,
      "Ġcooking": 3299,
      "umin": 3300,
      "more": 3301,
      "Ġexcept": 3302,
      "cient": 3303,
      "Ġcenter": 3304,
      "aly": 3305,
      "Ġrain": 3306,
      "ls": 3307,
      "Ġseed": 3308,
      "Ġaccur": 3309,
      "yond": 3310,
      "asks": 3311,
      "Ġsoon": 3312,
      "iate": 3313,
      "rops": 3314,
      "Ġult": 3315,
      "Ġarch": 3316,
      "Ġtail": 3317,
      "Ġutil": 3318,
      "Ġobtain": 3319,
      "Ġkn": 3320,
      "Ġvision": 3321,
      "Ġcame": 3322,
      "Â°": 3323,
      "mission": 3324,
      "Ġpractices": 3325,
      "Ġdetect": 3326,
      "Ġrare": 3327,
      "Ġinfection": 3328,
      "vey": 3329,
      "Ġmount": 3330,
      "Ġexcess": 3331,
      "While": 3332,
      "hol": 3333,
      "Ġfavor": 3334,
      "Ġbottom": 3335,
      "Ġaccept": 3336,
      "Ġlens": 3337,
      "Ġelement": 3338,
      "ĠChe": 3339,
      "Ġroot": 3340,
      "Ġfabric": 3341,
      "Ġsection": 3342,
      "Ġgives": 3343,
      "ball": 3344,
      "Ġshap": 3345,
      "Ġlate": 3346,
      "ogen": 3347,
      "Ġelectrical": 3348,
      "Ġcircuit": 3349,
      "ero": 3350,
      "Ġoxygen": 3351,
      "Ġdisord": 3352,
      "Ġexcell": 3353,
      "Ġcity": 3354,
      "He": 3355,
      "Ġvolt": 3356,
      "Ġthinking": 3357,
      "ĠPer": 3358,
      "ony": 3359,
      "Ġinvolves": 3360,
      "Ġready": 3361,
      "Ġimmune": 3362,
      "ields": 3363,
      "Ġhost": 3364,
      "Ġ24": 3365,
      "Ġreducing": 3366,
      "ran": 3367,
      "Ġbaby": 3368,
      "ixt": 3369,
      "Ġver": 3370,
      "Ġpriv": 3371,
      "Ġcycle": 3372,
      "Ġtouch": 3373,
      "ĠReg": 3374,
      "Ġsustainable": 3375,
      "ulated": 3376,
      "Ġboard": 3377,
      "ky": 3378,
      "With": 3379,
      "Ġinfect": 3380,
      "mber": 3381,
      "Ġhope": 3382,
      "Ġwriting": 3383,
      "Ġideal": 3384,
      "Ġantib": 3385,
      "isions": 3386,
      "Ġgold": 3387,
      "zz": 3388,
      "hold": 3389,
      "Ġsolutions": 3390,
      "lege": 3391,
      "rag": 3392,
      "ros": 3393,
      "Ġworth": 3394,
      "Ġimpl": 3395,
      "Ġtesting": 3396,
      "Ġresponsible": 3397,
      "ĠIntern": 3398,
      "Ġjo": 3399,
      "hood": 3400,
      "Ġstage": 3401,
      "Ġplatform": 3402,
      "rol": 3403,
      "cking": 3404,
      "Ġexpress": 3405,
      "Ġbill": 3406,
      "Ġdisp": 3407,
      "By": 3408,
      "Ġsignificantly": 3409,
      "Ġsuitable": 3410,
      "Ġconstruction": 3411,
      "Ġrock": 3412,
      "IT": 3413,
      "ha": 3414,
      "Ġrequirements": 3415,
      "Ġstorage": 3416,
      "Ġpull": 3417,
      "At": 3418,
      "Ġreaction": 3419,
      "ifically": 3420,
      "These": 3421,
      "Ġsent": 3422,
      "Ġvalu": 3423,
      "Ġiron": 3424,
      "Ġnothing": 3425,
      "Ġensuring": 3426,
      "Ġcleaning": 3427,
      "ĠAlso": 3428,
      "hel": 3429,
      "den": 3430,
      "Ġmanufacture": 3431,
      "Ġlimit": 3432,
      "Ġfile": 3433,
      "Ġlack": 3434,
      "ĠLet": 3435,
      "ĠGe": 3436,
      "ĠNow": 3437,
      "Ġpow": 3438,
      "care": 3439,
      "Ġroll": 3440,
      "char": 3441,
      "Ġjoint": 3442,
      "ĠOur": 3443,
      "ously": 3444,
      "Ġthr": 3445,
      "Ġprogress": 3446,
      "ĠSm": 3447,
      "empt": 3448,
      "Ġoutd": 3449,
      "Ġrich": 3450,
      "And": 3451,
      "IC": 3452,
      "AL": 3453,
      "Ġinvestig": 3454,
      "Ġfinal": 3455,
      "Ġfro": 3456,
      "Ġbeautiful": 3457,
      "oud": 3458,
      "Ġdiam": 3459,
      "Ġapplied": 3460,
      "Ġtook": 3461,
      "Ġsevere": 3462,
      "80": 3463,
      "Ġstarting": 3464,
      "Ġmiss": 3465,
      "inks": 3466,
      "Ġpattern": 3467,
      "Ġpoor": 3468,
      "rought": 3469,
      "Ġcommit": 3470,
      "Ġrev": 3471,
      "Ġliquid": 3472,
      "Ġcommer": 3473,
      "bl": 3474,
      "bor": 3475,
      "ĠGl": 3476,
      "Ġpowerful": 3477,
      "Ġingredients": 3478,
      "Ġnutrients": 3479,
      "Ġgames": 3480,
      "Ġatmosp": 3481,
      "ana": 3482,
      "Ġep": 3483,
      "ãģ": 3484,
      "pite": 3485,
      "Ġ:": 3486,
      "Ġinfl": 3487,
      "Ġfactor": 3488,
      "Ġmoment": 3489,
      "Ġtrack": 3490,
      "Ġtechnique": 3491,
      "Ġsalt": 3492,
      "Ġadding": 3493,
      "ffect": 3494,
      "ibly": 3495,
      "Ġhearing": 3496,
      "âĢ¢": 3497,
      "Ġaren": 3498,
      "Ġsmooth": 3499,
      "Ġnucle": 3500,
      "Ġnutrition": 3501,
      "iet": 3502,
      "abetes": 3503,
      "Ġyellow": 3504,
      "Ġthird": 3505,
      "oun": 3506,
      "mat": 3507,
      "Ġtransfer": 3508,
      "Ġdri": 3509,
      "Ġmuscle": 3510,
      "osystem": 3511,
      "Ġspot": 3512,
      "Ġweb": 3513,
      "Ġcentury": 3514,
      "Ġled": 3515,
      "Ġpromot": 3516,
      "Ġsecurity": 3517,
      "They": 3518,
      "rehens": 3519,
      "ister": 3520,
      "Ġheavy": 3521,
      "enn": 3522,
      "Ġbud": 3523,
      "cular": 3524,
      "craft": 3525,
      "Ġbehavi": 3526,
      "Ġswitch": 3527,
      "Ġplaces": 3528,
      "acing": 3529,
      "Ġpieces": 3530,
      "Ġfa": 3531,
      "Ġcurrently": 3532,
      "inking": 3533,
      "Ġbroad": 3534,
      "Ġwire": 3535,
      "rew": 3536,
      "Ġ|": 3537,
      "ificial": 3538,
      "Ġfully": 3539,
      "Ġsituation": 3540,
      "met": 3541,
      "Ġdepend": 3542,
      "Ġinteresting": 3543,
      "Ġconnected": 3544,
      "apter": 3545,
      "Ġgraph": 3546,
      "odes": 3547,
      "Ġsetting": 3548,
      "ĠTheir": 3549,
      "Ġconvers": 3550,
      "hetic": 3551,
      "Ġimag": 3552,
      "Ġvegetables": 3553,
      "Ġexperiment": 3554,
      "Ġbreed": 3555,
      "ester": 3556,
      "ĠOnce": 3557,
      "Ġwrong": 3558,
      "Ġfaster": 3559,
      "Ġexposure": 3560,
      "Ġowners": 3561,
      "Ġapply": 3562,
      "On": 3563,
      "roll": 3564,
      "standing": 3565,
      "ĠWho": 3566,
      "Ġcausing": 3567,
      "Ġincorpor": 3568,
      "Ġestim": 3569,
      "ĠAc": 3570,
      "Ġfrequency": 3571,
      "Ġexactly": 3572,
      "lands": 3573,
      "Ġdead": 3574,
      "ened": 3575,
      "Ġlocated": 3576,
      "estic": 3577,
      "Ġcharge": 3578,
      "amed": 3579,
      "Ġcommercial": 3580,
      "Ġocean": 3581,
      "Ġswim": 3582,
      "hether": 3583,
      "Ġinterf": 3584,
      "imens": 3585,
      "Ġhorse": 3586,
      "ĠRem": 3587,
      "Ġtank": 3588,
      "Ġrapid": 3589,
      "Ġdescribed": 3590,
      "200": 3591,
      "Ġcapacity": 3592,
      "Ġreve": 3593,
      "Ġsymbol": 3594,
      "Ġsuccessful": 3595,
      "arr": 3596,
      "Ġagricult": 3597,
      "Ġfunctions": 3598,
      "ĠArt": 3599,
      "Ġwalk": 3600,
      "Ġopportunity": 3601,
      "Ġculture": 3602,
      "Ġoccurs": 3603,
      "iction": 3604,
      "Ġanyone": 3605,
      "Ġinsp": 3606,
      "Ġsex": 3607,
      "Ġtox": 3608,
      "Ġgene": 3609,
      "rain": 3610,
      "Ġ60": 3611,
      "ok": 3612,
      "Ġstraight": 3613,
      "ashion": 3614,
      "arian": 3615,
      "Ġvia": 3616,
      "Ġdocument": 3617,
      "enge": 3618,
      "oration": 3619,
      "Ġdecision": 3620,
      "ĠAct": 3621,
      "ycl": 3622,
      "RE": 3623,
      "Ġnews": 3624,
      "Ġfilm": 3625,
      "Ġprocessing": 3626,
      "Im": 3627,
      "Ġscale": 3628,
      "pping": 3629,
      "Ġsolid": 3630,
      "ĠAg": 3631,
      "Ġbirth": 3632,
      "Ġnote": 3633,
      "ĠAdditionally": 3634,
      "Ġcoming": 3635,
      "ancing": 3636,
      "ĠTechn": 3637,
      "Ġexcellent": 3638,
      "Ġlat": 3639,
      "ĠLear": 3640,
      "Ġcontext": 3641,
      "Ġcombination": 3642,
      "Ġtherefore": 3643,
      "Ġstrategies": 3644,
      "OS": 3645,
      "Ġresid": 3646,
      "onal": 3647,
      "Ġcars": 3648,
      "duc": 3649,
      "Re": 3650,
      "Ġreduced": 3651,
      "ĠAir": 3652,
      "Ġincluded": 3653,
      "book": 3654,
      "Ġexpert": 3655,
      "</": 3656,
      "Ġtissue": 3657,
      "Ġdemand": 3658,
      "Ġreceive": 3659,
      "ĠWest": 3660,
      "Ġexamples": 3661,
      "che": 3662,
      "Ġclin": 3663,
      "Ġshar": 3664,
      "Ġmoisture": 3665,
      "Do": 3666,
      "omb": 3667,
      "Ġliter": 3668,
      "ender": 3669,
      "Ġtaste": 3670,
      "roduction": 3671,
      "Ġproperty": 3672,
      "Ġtherapy": 3673,
      "Ġeffectively": 3674,
      "Ġtask": 3675,
      "Ġflex": 3676,
      "ĠOther": 3677,
      "ĠWater": 3678,
      "Ġcontribute": 3679,
      "ĠBecause": 3680,
      "amb": 3681,
      "Ġpref": 3682,
      "Ġjourney": 3683,
      "Ġthus": 3684,
      "ĠOver": 3685,
      "Ġwin": 3686,
      "Ġlooks": 3687,
      "ĠEm": 3688,
      "ĠSim": 3689,
      "Ġmouth": 3690,
      "Ġforward": 3691,
      "ĠSw": 3692,
      "Ġmob": 3693,
      "Ġgradu": 3694,
      "erences": 3695,
      "Ġadvanced": 3696,
      "Ġbecame": 3697,
      "Ġintellig": 3698,
      "Ġpump": 3699,
      "Ġcollabor": 3700,
      "Ġund": 3701,
      "onic": 3702,
      "Ġinches": 3703,
      "Ġroof": 3704,
      "uration": 3705,
      "xi": 3706,
      "Ġwet": 3707,
      "Ġdetails": 3708,
      "Ġwat": 3709,
      "Ġbrown": 3710,
      "Ġgiving": 3711,
      "Ġcloth": 3712,
      "Ġvoltage": 3713,
      "ĠEach": 3714,
      "ancial": 3715,
      "Ġtherm": 3716,
      "Ġpsych": 3717,
      "olar": 3718,
      "ĠDis": 3719,
      "ĠRed": 3720,
      "Ġdoctor": 3721,
      "ided": 3722,
      "rick": 3723,
      "ada": 3724,
      "Ġbooks": 3725,
      "Ġschools": 3726,
      "avig": 3727,
      "right": 3728,
      "zy": 3729,
      "ĠJust": 3730,
      "Ġchance": 3731,
      "dom": 3732,
      "iar": 3733,
      "Ġheight": 3734,
      "Ġsites": 3735,
      "Ġbeyond": 3736,
      "ĠBrit": 3737,
      "Ġ#": 3738,
      "Ġexperiences": 3739,
      "22": 3740,
      "urt": 3741,
      "Ġsteel": 3742,
      "cohol": 3743,
      "Ġkeeping": 3744,
      "Ġmiddle": 3745,
      "ching": 3746,
      "Ġupd": 3747,
      "Ġexpected": 3748,
      "Ġbutter": 3749,
      "Pl": 3750,
      "itis": 3751,
      "Ġarm": 3752,
      "izations": 3753,
      "Now": 3754,
      "Ġmaximum": 3755,
      "Ġaqu": 3756,
      "Ġextremely": 3757,
      "Ġeth": 3758,
      "Ġeffort": 3759,
      "Ġfertil": 3760,
      "Ġstructures": 3761,
      "hyd": 3762,
      "Ġwrite": 3763,
      "ails": 3764,
      "Ġexpensive": 3765,
      "Ġcamp": 3766,
      "Ġalternative": 3767,
      "Ġstream": 3768,
      "ĠRec": 3769,
      "Ġrecently": 3770,
      "place": 3771,
      "othes": 3772,
      "Ġphotos": 3773,
      "Ġpresence": 3774,
      "Ġgenes": 3775,
      "can": 3776,
      "ĠNOT": 3777,
      "ober": 3778,
      "ĠMin": 3779,
      "Step": 3780,
      "wing": 3781,
      "Ġcoast": 3782,
      "lier": 3783,
      "Ġalthough": 3784,
      "Ġconsumption": 3785,
      "off": 3786,
      "Ġconservation": 3787,
      "Ġsynt": 3788,
      "Ġmonit": 3789,
      "Ġhuge": 3790,
      "haps": 3791,
      "Ġparticles": 3792,
      "ĠFl": 3793,
      "alt": 3794,
      "Ġrelease": 3795,
      "Ġdegrees": 3796,
      "anging": 3797,
      "Ġhandle": 3798,
      "Ġelectricity": 3799,
      "zing": 3800,
      "ĠChrist": 3801,
      "Ġthous": 3802,
      "Ġfair": 3803,
      "oman": 3804,
      "ipes": 3805,
      "Ġslightly": 3806,
      "Ġnotice": 3807,
      "Ġnoise": 3808,
      "Ġâ": 3809,
      "orith": 3810,
      "pre": 3811,
      "Ġecosystem": 3812,
      "Ġagg": 3813,
      "ipl": 3814,
      "Ġmedium": 3815,
      "Ġnative": 3816,
      "Ġdifferences": 3817,
      "ĠGerm": 3818,
      "Ġlost": 3819,
      "ĠState": 3820,
      "AM": 3821,
      "Ġmother": 3822,
      "Some": 3823,
      "Ġmut": 3824,
      "Ġincreases": 3825,
      "Ġattempt": 3826,
      "Ġaffected": 3827,
      "fish": 3828,
      "Ġstim": 3829,
      "house": 3830,
      "Ġtests": 3831,
      "ban": 3832,
      "iling": 3833,
      "tes": 3834,
      "Ġtasks": 3835,
      "Ġpregn": 3836,
      "Ġremains": 3837,
      "Ġsaw": 3838,
      "ĠĠĠĠ": 3839,
      "apan": 3840,
      "Ġpaint": 3841,
      "Un": 3842,
      "Ġbone": 3843,
      "ĠMake": 3844,
      "ĠQ": 3845,
      "Ġtri": 3846,
      "cules": 3847,
      "ams": 3848,
      "Ġonto": 3849,
      "Ġvolume": 3850,
      "Ġlargest": 3851,
      "Ġgoals": 3852,
      "Ġrelatively": 3853,
      "Ġflavor": 3854,
      "Ġproteins": 3855,
      "pped": 3856,
      "Ġhyp": 3857,
      "rates": 3858,
      "being": 3859,
      "abilities": 3860,
      "Ġfemale": 3861,
      "Ġhit": 3862,
      "Ġolder": 3863,
      "ĠJoh": 3864,
      "Ġcharacteristics": 3865,
      "ĠSystem": 3866,
      "Ġsounds": 3867,
      "Ġdiv": 3868,
      "].": 3869,
      "ĠEven": 3870,
      "iforn": 3871,
      "Ġtrend": 3872,
      "enty": 3873,
      "uries": 3874,
      "Ġcutting": 3875,
      "Ġdiscovered": 3876,
      "gram": 3877,
      "riend": 3878,
      "Ġdepth": 3879,
      "Ġplaced": 3880,
      "ĠMod": 3881,
      "Ġchanging": 3882,
      "Ġreported": 3883,
      "70": 3884,
      "ĠTw": 3885,
      "Ġmis": 3886,
      "omic": 3887,
      "Ġsnow": 3888,
      "gery": 3889,
      "Ġcateg": 3890,
      "Ġsmart": 3891,
      "cast": 3892,
      "Ġteachers": 3893,
      "Ġvaluable": 3894,
      "oors": 3895,
      "Ġadop": 3896,
      "23": 3897,
      "Ġphone": 3898,
      "Ġversion": 3899,
      "Ġconnection": 3900,
      "redit": 3901,
      "ĠCenter": 3902,
      "Ġsess": 3903,
      "Ġemissions": 3904,
      "ĠHigh": 3905,
      "Ġopportunities": 3906,
      "ĠAccording": 3907,
      "Ġstri": 3908,
      "Ġmotion": 3909,
      "Ġcommunities": 3910,
      "ĠEnglish": 3911,
      "bits": 3912,
      "ĠIts": 3913,
      "Ġinstance": 3914,
      "Ġfilter": 3915,
      "Ġdepends": 3916,
      "Ġpicture": 3917,
      "Ġplanet": 3918,
      "Ġflat": 3919,
      "Ġspect": 3920,
      "Ġmeasures": 3921,
      "ET": 3922,
      "Ġcomprehens": 3923,
      "semb": 3924,
      "Ġindepend": 3925,
      "celer": 3926,
      "aught": 3927,
      "Ġapprox": 3928,
      "ĠGra": 3929,
      "Ġdriving": 3930,
      "Ġphase": 3931,
      "ĠAut": 3932,
      "Ġflight": 3933,
      "Ġtit": 3934,
      "Ġbran": 3935,
      "Ġmag": 3936,
      "Ġround": 3937,
      "Ġvirt": 3938,
      "Ġmid": 3939,
      "Ġbow": 3940,
      "Ġadults": 3941,
      "Ġclim": 3942,
      "Ġfluid": 3943,
      "Ġbackground": 3944,
      "Ġcomfortable": 3945,
      "urally": 3946,
      "Ġexpand": 3947,
      "Ġalone": 3948,
      "inding": 3949,
      "Ġteaching": 3950,
      "eed": 3951,
      "omy": 3952,
      "ĠGod": 3953,
      "ifornia": 3954,
      "lebr": 3955,
      "flow": 3956,
      "ica": 3957,
      "24": 3958,
      "Ġtechnologies": 3959,
      "rim": 3960,
      "Ġadvantage": 3961,
      "rench": 3962,
      "uild": 3963,
      "unction": 3964,
      "hest": 3965,
      "crete": 3966,
      "Res": 3967,
      "ogle": 3968,
      "Ġast": 3969,
      "ĠBi": 3970,
      "ĠFirst": 3971,
      "Ġdistinct": 3972,
      "ĠAlthough": 3973,
      "Ġdat": 3974,
      "Ġstuff": 3975,
      "rier": 3976,
      "ternal": 3977,
      "know": 3978,
      "Ġmanage": 3979,
      "Ġachie": 3980,
      "Ġmale": 3981,
      "Ġresulting": 3982,
      "Ġder": 3983,
      "ĠIndia": 3984,
      "Ġtrig": 3985,
      "raction": 3986,
      "iments": 3987,
      "ses": 3988,
      "Ġdoor": 3989,
      "pan": 3990,
      "Ġpopulations": 3991,
      "xiety": 3992,
      "Ġefforts": 3993,
      "Ġrecycl": 3994,
      "EM": 3995,
      "Ġsold": 3996,
      "wers": 3997,
      "Ġexisting": 3998,
      "Ġattack": 3999,
      "Ġhistor": 4000,
      "free": 4001,
      "Ġinfluence": 4002,
      "Ġrules": 4003,
      "Ġwent": 4004,
      "Ġnit": 4005,
      "Ġdeb": 4006,
      "Ġbright": 4007,
      "Ġprofession": 4008,
      "Ġdegree": 4009,
      "ĠPart": 4010,
      "vity": 4011,
      "ĠPhot": 4012,
      "Ġkill": 4013,
      "ups": 4014,
      "resp": 4015,
      "ĠTH": 4016,
      "Ġpool": 4017,
      "PS": 4018,
      "Ġinsects": 4019,
      "Ġaspects": 4020,
      "ĠRep": 4021,
      "Ġstar": 4022,
      "Ġalgorith": 4023,
      "Ġfoss": 4024,
      "Ġlabor": 4025,
      "):": 4026,
      "Ġfinancial": 4027,
      "Ġbegan": 4028,
      "Here": 4029,
      "Ġrespond": 4030,
      "equ": 4031,
      "bing": 4032,
      "Ġcomponent": 4033,
      "oom": 4034,
      "Ġappearance": 4035,
      "ĠSpe": 4036,
      "Ġrates": 4037,
      "ogs": 4038,
      "Ġtrou": 4039,
      "ST": 4040,
      "Ġsweet": 4041,
      "que": 4042,
      "Ġspecifically": 4043,
      "Ã©": 4044,
      "Ġactual": 4045,
      "hop": 4046,
      "ĠServ": 4047,
      "Ġhabitat": 4048,
      "Ġfeeling": 4049,
      "ken": 4050,
      "chen": 4051,
      "Ġdate": 4052,
      "Ġspir": 4053,
      "eters": 4054,
      "AD": 4055,
      "Ġevol": 4056,
      "wide": 4057,
      "Ġwonder": 4058,
      "Ġinstructions": 4059,
      "Ġwritten": 4060,
      "Ġhear": 4061,
      "Ġclos": 4062,
      "Ġchallenge": 4063,
      "Ġdiabetes": 4064,
      "Ġpush": 4065,
      "ressive": 4066,
      "year": 4067,
      "urance": 4068,
      "Ġserve": 4069,
      "Ġroots": 4070,
      "encies": 4071,
      "ocal": 4072,
      "Ġtooth": 4073,
      "ollow": 4074,
      "Ġseparate": 4075,
      "Ġchann": 4076,
      "Ġdynam": 4077,
      "Ġmaintaining": 4078,
      "Ġsurpr": 4079,
      "Ġbeginning": 4080,
      "ille": 4081,
      "Ġplanning": 4082,
      "ĠSince": 4083,
      "ype": 4084,
      "undred": 4085,
      "Ġspend": 4086,
      "ĠInstitute": 4087,
      "Ġparam": 4088,
      "ĠCalifornia": 4089,
      "ĠRead": 4090,
      "Ġcollection": 4091,
      "Ġallowed": 4092,
      "Ġequal": 4093,
      "Ġasked": 4094,
      "ying": 4095,
      "Ġcore": 4096,
      "Ġregions": 4097,
      "ĠPar": 4098,
      "ĠJapan": 4099,
      "Ġwel": 4100,
      "Ġcentral": 4101,
      "Ġcovered": 4102,
      "Ġimmediately": 4103,
      "pen": 4104,
      "Ġfight": 4105,
      "Ġfinding": 4106,
      "iant": 4107,
      "ibrary": 4108,
      "Ġpric": 4109,
      "Ġded": 4110,
      "Ġpal": 4111,
      "Ġselection": 4112,
      "spe": 4113,
      "Ġrepe": 4114,
      "gra": 4115,
      "Ġwave": 4116,
      "Ġillust": 4117,
      "izer": 4118,
      "Ġhighlight": 4119,
      "oice": 4120,
      "ctors": 4121,
      "Ġconsult": 4122,
      "Ġdiscover": 4123,
      "Ġelectron": 4124,
      "Ġfigure": 4125,
      "Ġfashion": 4126,
      "Ġsort": 4127,
      "Ġmatch": 4128,
      "rows": 4129,
      "Ġscen": 4130,
      "Ġmolecules": 4131,
      "Ġrub": 4132,
      "icks": 4133,
      "Ġbound": 4134,
      "Ġrise": 4135,
      "Ġchicken": 4136,
      "Ġestablish": 4137,
      "inos": 4138,
      "ads": 4139,
      "aled": 4140,
      "Ġregularly": 4141,
      "part": 4142,
      "Ġnearly": 4143,
      "ief": 4144,
      "Ġoperation": 4145,
      "Ġformed": 4146,
      "rupt": 4147,
      "Ġnational": 4148,
      "abol": 4149,
      "Ġplease": 4150,
      "However": 4151,
      "Ġfloor": 4152,
      "Ġcompar": 4153,
      "IG": 4154,
      "Ġbasis": 4155,
      "bre": 4156,
      "fess": 4157,
      "oly": 4158,
      "Ġsample": 4159,
      "Ġfamilies": 4160,
      "iverse": 4161,
      "Ġdistribution": 4162,
      "inally": 4163,
      "Ġplayers": 4164,
      "vention": 4165,
      "ilit": 4166,
      "Ġtrust": 4167,
      "used": 4168,
      "mar": 4169,
      "inger": 4170,
      "Ġhour": 4171,
      "Ġlights": 4172,
      "Ġstandards": 4173,
      "Ġstem": 4174,
      "Ġcustomers": 4175,
      "ios": 4176,
      "Ġinternal": 4177,
      "Ġfurn": 4178,
      "Ġvital": 4179,
      "Ġcomplic": 4180,
      "ications": 4181,
      "Ġdish": 4182,
      "Ġcounter": 4183,
      "Ġaccurate": 4184,
      "Ġqual": 4185,
      "Ġcouple": 4186,
      "Ġalcohol": 4187,
      "Ġenter": 4188,
      "Ġcalc": 4189,
      "orial": 4190,
      "Ġvent": 4191,
      "itect": 4192,
      "Ġelimin": 4193,
      "ION": 4194,
      "Ġfly": 4195,
      "Ġmember": 4196,
      "Ġhelping": 4197,
      "ixture": 4198,
      "EC": 4199,
      "ĠSec": 4200,
      "Ġcryst": 4201,
      "Ġpets": 4202,
      "agram": 4203,
      "Ġdrain": 4204,
      "ĠTherefore": 4205,
      "Ġ*": 4206,
      "ĠDon": 4207,
      "ĠTrans": 4208,
      "ĠUsing": 4209,
      "ãĥ": 4210,
      "Ġrisks": 4211,
      "cription": 4212,
      "Ġsuggests": 4213,
      "bed": 4214,
      "ux": 4215,
      "minist": 4216,
      "Ġpromote": 4217,
      "ament": 4218,
      "Ġphen": 4219,
      "ĠAnt": 4220,
      "Ġtax": 4221,
      "Ġobserved": 4222,
      "ashing": 4223,
      "Ġdie": 4224,
      "Ġtiny": 4225,
      "Ġstru": 4226,
      "azing": 4227,
      "Ġmel": 4228,
      "Ph": 4229,
      "Ġfrequently": 4230,
      "Ġneut": 4231,
      "Ġpig": 4232,
      "related": 4233,
      "Ġdrawing": 4234,
      "wood": 4235,
      "Ġconver": 4236,
      "uce": 4237,
      "Ġplaying": 4238,
      "Ġstaff": 4239,
      "Ġbodies": 4240,
      "Ġdivers": 4241,
      "Ġnavig": 4242,
      "Ġshel": 4243,
      "Ġapprec": 4244,
      "alle": 4245,
      "ING": 4246,
      "II": 4247,
      "ĠFood": 4248,
      "ãĤ": 4249,
      "Ġmarine": 4250,
      "Ġframe": 4251,
      "Ġelectro": 4252,
      "iol": 4253,
      "Ġweak": 4254,
      "Ġspl": 4255,
      "Ġlearned": 4256,
      "key": 4257,
      "oma": 4258,
      "Ġchemicals": 4259,
      "Ġju": 4260,
      "Ġwanted": 4261,
      "ares": 4262,
      "Ġmuscles": 4263,
      "Ġatmosphere": 4264,
      "atural": 4265,
      "ira": 4266,
      "Ġtopic": 4267,
      "elines": 4268,
      "Ġmiles": 4269,
      "Ġwildlife": 4270,
      "ipped": 4271,
      "ĠUnder": 4272,
      "Ġhappy": 4273,
      "Ġign": 4274,
      "ĠYork": 4275,
      "Ġpractical": 4276,
      "Ġfill": 4277,
      "Ġadvice": 4278,
      "All": 4279,
      "ĠCount": 4280,
      "Ġbecoming": 4281,
      "uth": 4282,
      "Ġexhib": 4283,
      "ĠMon": 4284,
      "Ġgenerate": 4285,
      "Ġeconomic": 4286,
      "Ġrobot": 4287,
      "Ġfeeding": 4288,
      "Ġcelebr": 4289,
      "uary": 4290,
      "Ġveter": 4291,
      "icated": 4292,
      "cil": 4293,
      "aser": 4294,
      "friend": 4295,
      "Us": 4296,
      "Ġgeneration": 4297,
      "Ġgear": 4298,
      "Ġpredict": 4299,
      "ped": 4300,
      "Ġsche": 4301,
      "Ġstick": 4302,
      "umn": 4303,
      "Ġbond": 4304,
      "Ġwindow": 4305,
      "Ġimproved": 4306,
      "ĠWar": 4307,
      "Ġidentified": 4308,
      "ĠAfrica": 4309,
      "Ġinfections": 4310,
      "Ġlov": 4311,
      "Ġ80": 4312,
      "Ġcontract": 4313,
      "inder": 4314,
      "Ġsociety": 4315,
      "ded": 4316,
      "Ġhundred": 4317,
      "Ġrid": 4318,
      "Ġfields": 4319,
      "ulating": 4320,
      "Ġfavorite": 4321,
      "Ġpotentially": 4322,
      "ishing": 4323,
      "Ġexperienced": 4324,
      "Ġod": 4325,
      "word": 4326,
      "Ġpair": 4327,
      "ĠSu": 4328,
      "Ġlose": 4329,
      "Ġfruits": 4330,
      "Ġregarding": 4331,
      "body": 4332,
      "Des": 4333,
      "oday": 4334,
      "eline": 4335,
      "Ġchanged": 4336,
      "Ġdangerous": 4337,
      "Ġinterested": 4338,
      "unk": 4339,
      "ums": 4340,
      "Ġinternational": 4341,
      "Ġhelpful": 4342,
      "Ġmig": 4343,
      "ĠDepartment": 4344,
      "Ġhomes": 4345,
      "Ġtrain": 4346,
      "vironments": 4347,
      "Ġcustomer": 4348,
      "Ġdouble": 4349,
      "eties": 4350,
      "Ġanxiety": 4351,
      "Ġacceler": 4352,
      "Ġnan": 4353,
      "ĠUK": 4354,
      "Ġsav": 4355,
      "Ġfed": 4356,
      "Ġfear": 4357,
      "med": 4358,
      "Ġremoved": 4359,
      "ifying": 4360,
      "Ġedge": 4361,
      "Ġkid": 4362,
      "ech": 4363,
      "org": 4364,
      "Ġlighting": 4365,
      "atically": 4366,
      "Ġlayers": 4367,
      "alse": 4368,
      "Ġcreative": 4369,
      "ublic": 4370,
      "Ġrepair": 4371,
      "ĠAustralia": 4372,
      "Our": 4373,
      "ĠSte": 4374,
      "Ġ21": 4375,
      "Ġworked": 4376,
      "Ġinflamm": 4377,
      "My": 4378,
      "That": 4379,
      "ny": 4380,
      "Ġanti": 4381,
      "Ġleaf": 4382,
      "Ġaudio": 4383,
      "Ġdrop": 4384,
      "oxide": 4385,
      "Ġreality": 4386,
      "ĠEduc": 4387,
      "icking": 4388,
      "Ġdiverse": 4389,
      "Ġorganization": 4390,
      "Ġexec": 4391,
      "osite": 4392,
      "Ar": 4393,
      "Ġbreast": 4394,
      "Ġamounts": 4395,
      "Ġdrug": 4396,
      "Ġmaybe": 4397,
      "Ġteach": 4398,
      "ees": 4399,
      "formation": 4400,
      "Ġnumerous": 4401,
      "iter": 4402,
      "Ġsecure": 4403,
      "Ġadvance": 4404,
      "Ġdura": 4405,
      "Ġconsequ": 4406,
      "Ġleaders": 4407,
      "mm": 4408,
      "Ġsatis": 4409,
      "Ab": 4410,
      "ulf": 4411,
      "Ġallerg": 4412,
      "Ġvehicles": 4413,
      "outhern": 4414,
      "ager": 4415,
      "Ġchain": 4416,
      "ius": 4417,
      "Ġreceived": 4418,
      "After": 4419,
      "Ġcand": 4420,
      "Ġradio": 4421,
      "21": 4422,
      "Ġhorm": 4423,
      "No": 4424,
      "!!": 4425,
      "Ġsell": 4426,
      "olute": 4427,
      "ource": 4428,
      "Ġmold": 4429,
      "ĠDay": 4430,
      "||": 4431,
      "Ġestablished": 4432,
      "Ġsurgery": 4433,
      "Ġboost": 4434,
      "iples": 4435,
      "known": 4436,
      "Ġemp": 4437,
      "ĠEd": 4438,
      "orthern": 4439,
      "ĠJu": 4440,
      "Ġgrown": 4441,
      "imal": 4442,
      "ĠEvery": 4443,
      "Ġthor": 4444,
      "idity": 4445,
      "Ġbath": 4446,
      "iers": 4447,
      "Ġpolit": 4448,
      "Ġharvest": 4449,
      "rans": 4450,
      "Ġenvironments": 4451,
      "Ġpollution": 4452,
      "Ġheld": 4453,
      "Ġapproximately": 4454,
      "Ġencourage": 4455,
      "Ġ2020": 4456,
      "ĠWell": 4457,
      "Ġsimpl": 4458,
      "Ġartificial": 4459,
      "Ġrelax": 4460,
      "ceed": 4461,
      "Ġmist": 4462,
      "ĠWhether": 4463,
      "ĠPC": 4464,
      "Ġsurfaces": 4465,
      "ĠBar": 4466,
      "pective": 4467,
      "icious": 4468,
      "Ġdecisions": 4469,
      "pril": 4470,
      "Ġcomprehensive": 4471,
      "ought": 4472,
      "rome": 4473,
      "ĠDuring": 4474,
      "Ġsports": 4475,
      "Ġconcerns": 4476,
      "Ġsignals": 4477,
      "Ġple": 4478,
      "ĠJan": 4479,
      "uting": 4480,
      "ript": 4481,
      "Ġburn": 4482,
      "Ġpupp": 4483,
      "iveness": 4484,
      "Ġresource": 4485,
      "Ġhosp": 4486,
      "ste": 4487,
      "Ġdefined": 4488,
      "Ġoperations": 4489,
      "erals": 4490,
      "Ġroutine": 4491,
      "ĠDi": 4492,
      "Ġplate": 4493,
      "roup": 4494,
      "Ġmostly": 4495,
      "Ġdesired": 4496,
      "phas": 4497,
      "Ġshowed": 4498,
      "AP": 4499,
      "Ġsod": 4500,
      "Ġbeneficial": 4501,
      "Ġhealthcare": 4502,
      "OU": 4503,
      "Ġphoto": 4504,
      "Ġtalking": 4505,
      "force": 4506,
      "Ġhydro": 4507,
      "atever": 4508,
      "Ġangle": 4509,
      "Ġtour": 4510,
      "Ġteacher": 4511,
      "Ġlandscape": 4512,
      "ffee": 4513,
      "Ġ\\": 4514,
      "ndom": 4515,
      "Ġlots": 4516,
      "Ġraw": 4517,
      "Ġconstruct": 4518,
      "des": 4519,
      "cont": 4520,
      "Ġengineering": 4521,
      "Ġhighest": 4522,
      "erate": 4523,
      "oughly": 4524,
      "Int": 4525,
      "Ġflav": 4526,
      "Ġsquare": 4527,
      "ĠCom": 4528,
      "Ġindustrial": 4529,
      "Ġupper": 4530,
      "Ġreference": 4531,
      "Ġheating": 4532,
      "Ġplans": 4533,
      "col": 4534,
      "Ġtold": 4535,
      "Ġ90": 4536,
      "Ġinjury": 4537,
      "Ġsensor": 4538,
      "ris": 4539,
      "Ġancient": 4540,
      "Ġtypical": 4541,
      "ĠChina": 4542,
      "Ġmeal": 4543,
      "Ġdesigns": 4544,
      "nes": 4545,
      "Ġheard": 4546,
      "Ġsem": 4547,
      "ĠDoes": 4548,
      "Ġexposed": 4549,
      "ĠGreen": 4550,
      "uman": 4551,
      "Ġdro": 4552,
      "ĠCle": 4553,
      "Ġconcrete": 4554,
      "ĠAv": 4555,
      "Ġcontrast": 4556,
      "Ġsettings": 4557,
      "Ġten": 4558,
      "cious": 4559,
      "iced": 4560,
      "orses": 4561,
      "Ġsaying": 4562,
      "Ġbusinesses": 4563,
      "Ġexperts": 4564,
      "Ġoccas": 4565,
      "Ġprimarily": 4566,
      "quality": 4567,
      "Ke": 4568,
      "Ġwidely": 4569,
      "Ġdental": 4570,
      "?\"": 4571,
      "Ġ)": 4572,
      "Ġshop": 4573,
      "Ġillness": 4574,
      "ĠChar": 4575,
      "Ġunits": 4576,
      "Ġearlier": 4577,
      "Ġtexture": 4578,
      "Ġnamed": 4579,
      "raw": 4580,
      "ocolate": 4581,
      "my": 4582,
      "Ġdiss": 4583,
      "ĠAC": 4584,
      "irect": 4585,
      "cap": 4586,
      "Ġvess": 4587,
      "Another": 4588,
      "Ġclick": 4589,
      "ĠWill": 4590,
      "Ġprepared": 4591,
      "Ġmit": 4592,
      "Ġharmful": 4593,
      "Ġnest": 4594,
      "ida": 4595,
      "works": 4596,
      "estyle": 4597,
      "Ġneigh": 4598,
      "Ġstarts": 4599,
      "Ġrelationships": 4600,
      "cers": 4601,
      "rating": 4602,
      "asting": 4603,
      "Ġassign": 4604,
      "Ġclasses": 4605,
      "ĠElect": 4606,
      "Ġband": 4607,
      "Ġemotional": 4608,
      "hyl": 4609,
      "ĠAug": 4610,
      "Ġreleased": 4611,
      "bal": 4612,
      "Ġwalls": 4613,
      "Se": 4614,
      "iences": 4615,
      "ĠSur": 4616,
      "ĠEl": 4617,
      "Ġnaturally": 4618,
      "Ġtoxic": 4619,
      "Ġplays": 4620,
      "Ġratio": 4621,
      "Ġobvious": 4622,
      "Ġshell": 4623,
      "Ġeventually": 4624,
      "Ġaircraft": 4625,
      "Ġfindings": 4626,
      "Ġbrush": 4627,
      "Ġmachines": 4628,
      "lev": 4629,
      "Ġconc": 4630,
      "ĠEuropean": 4631,
      "Ġpul": 4632,
      "ek": 4633,
      "ĠBra": 4634,
      "Ġassum": 4635,
      "Ġrelevant": 4636,
      "Ġlegal": 4637,
      "Ġblog": 4638,
      "Ġleads": 4639,
      "Ġrice": 4640,
      "ordin": 4641,
      "ĠPark": 4642,
      "ta": 4643,
      "yd": 4644,
      "Ġmamm": 4645,
      "Ġtransl": 4646,
      "Ġstrategy": 4647,
      "Ġflower": 4648,
      "Ġconven": 4649,
      "allow": 4650,
      "Ġdetailed": 4651,
      "Ġmixture": 4652,
      "itely": 4653,
      "Ġtoward": 4654,
      "Ġoperating": 4655,
      "Ġpurchase": 4656,
      "which": 4657,
      "Ġdrugs": 4658,
      "Ġmorning": 4659,
      "ĠKeep": 4660,
      "Ġelev": 4661,
      "ĠEnvironment": 4662,
      "za": 4663,
      "Ġtransmission": 4664,
      "Ġexternal": 4665,
      "Ġorganisms": 4666,
      "Ġcarefully": 4667,
      "Ġfollowed": 4668,
      "ĠOct": 4669,
      "Ġcultural": 4670,
      "Ġrule": 4671,
      "clus": 4672,
      "Ġkitchen": 4673,
      "Ġmagnetic": 4674,
      "Ġhous": 4675,
      "kin": 4676,
      "ĠâĢ¢": 4677,
      "Ġbike": 4678,
      "Ġlatest": 4679,
      "Ġreliable": 4680,
      "ĠFr": 4681,
      "Ġcolour": 4682,
      "Ġrandom": 4683,
      "Ġ198": 4684,
      "Ġcert": 4685,
      "Ġafford": 4686,
      "Ġpolicy": 4687,
      "Ġadvantages": 4688,
      "Ġcup": 4689,
      "isp": 4690,
      "ipping": 4691,
      "Ġtreated": 4692,
      "ĠAN": 4693,
      "hemat": 4694,
      "aid": 4695,
      "Ġthread": 4696,
      "Ġstre": 4697,
      "Ġemail": 4698,
      "urrent": 4699,
      "acking": 4700,
      "Ġhom": 4701,
      "Ġnice": 4702,
      "Ġmode": 4703,
      "Ġstrugg": 4704,
      "roduct": 4705,
      "________": 4706,
      "Ġofficial": 4707,
      "gl": 4708,
      "Ġorganizations": 4709,
      "add": 4710,
      "Ġmac": 4711,
      "Ġappears": 4712,
      "ĠPres": 4713,
      "Ġmonitoring": 4714,
      "ĠGoogle": 4715,
      "Ġbatteries": 4716,
      "Ġcraft": 4717,
      "Ġtreatments": 4718,
      "Ġtall": 4719,
      "ĠChild": 4720,
      "Ġchrom": 4721,
      "Ġactions": 4722,
      "brid": 4723,
      "Ġstored": 4724,
      "Ġsamples": 4725,
      "Ġmessage": 4726,
      "rant": 4727,
      "Ġindicate": 4728,
      "Ġsituations": 4729,
      "Ġsunlight": 4730,
      "ĠST": 4731,
      "oul": 4732,
      "Ġapart": 4733,
      "Ġdetermined": 4734,
      "100": 4735,
      "Ġfung": 4736,
      "Ġax": 4737,
      "Ġacqu": 4738,
      "Ġdigest": 4739,
      "Ġextract": 4740,
      "Ġmaster": 4741,
      "och": 4742,
      "car": 4743,
      "ptember": 4744,
      "Ġoffice": 4745,
      "Ġsets": 4746,
      "ico": 4747,
      "Ġstret": 4748,
      "Ġprofessionals": 4749,
      "Ġbreeding": 4750,
      "Ġwaves": 4751,
      "ologist": 4752,
      "ĠBlack": 4753,
      "Ġhydrogen": 4754,
      "Ġarchitect": 4755,
      "35": 4756,
      "Ġmanufacturing": 4757,
      "Ġsty": 4758,
      "icip": 4759,
      "Ġhon": 4760,
      "Ġthousands": 4761,
      "Ġ2017": 4762,
      "Ġchoosing": 4763,
      "lines": 4764,
      "Ġbrought": 4765,
      "umber": 4766,
      "Ġmedicine": 4767,
      "ĠProgram": 4768,
      "Ġbeauty": 4769,
      "Ġisol": 4770,
      "Ġcorresp": 4771,
      "with": 4772,
      "Ġ2014": 4773,
      "bi": 4774,
      "Ġexpression": 4775,
      "Answer": 4776,
      "Ġbat": 4777,
      "ued": 4778,
      "Ġintroduced": 4779,
      "Ġstories": 4780,
      "Bl": 4781,
      "ĠGet": 4782,
      "Ġoutdoor": 4783,
      "friendly": 4784,
      "CO": 4785,
      "isher": 4786,
      "Ġelectronic": 4787,
      "change": 4788,
      "ĠBo": 4789,
      "ĠJune": 4790,
      "Ġconsistent": 4791,
      "Ġdu": 4792,
      "see": 4793,
      "Ġoptimal": 4794,
      "Ġ2015": 4795,
      "Ġcream": 4796,
      "Ġcit": 4797,
      "ĠCanada": 4798,
      "ĠHer": 4799,
      "26": 4800,
      "Ġprivate": 4801,
      "Ġperformed": 4802,
      "lets": 4803,
      "olid": 4804,
      "Ġvibr": 4805,
      "ĠBritish": 4806,
      "ĠCor": 4807,
      "Ġbot": 4808,
      "ĠOut": 4809,
      "Ġstone": 4810,
      "Ġuns": 4811,
      "Are": 4812,
      "Ġdescribe": 4813,
      "Ġincred": 4814,
      "Ġprepare": 4815,
      "Ġquantum": 4816,
      "Ġvs": 4817,
      "asts": 4818,
      "Ġkept": 4819,
      "Ġdensity": 4820,
      "Ġfishing": 4821,
      "45": 4822,
      "Ġprecise": 4823,
      "Ġtransmit": 4824,
      "hab": 4825,
      "Ġvert": 4826,
      "Ġcombined": 4827,
      "Ġchoices": 4828,
      "Ġvitamin": 4829,
      "Ġreduction": 4830,
      "uments": 4831,
      "Ġlegs": 4832,
      "Ġsyn": 4833,
      "Ġassemb": 4834,
      "Ġmembr": 4835,
      "Ġemphas": 4836,
      "Ġalign": 4837,
      "Ġdrink": 4838,
      "Yes": 4839,
      "Ġcoat": 4840,
      "29": 4841,
      "Ġplanting": 4842,
      "Ġmainly": 4843,
      "Ġformation": 4844,
      "ĠMarch": 4845,
      "ighter": 4846,
      "Ġmeasured": 4847,
      "27": 4848,
      "Ġhole": 4849,
      "Most": 4850,
      "Ġbiological": 4851,
      "ishes": 4852,
      "Your": 4853,
      "ĠClass": 4854,
      "Ġfiber": 4855,
      "Ġsizes": 4856,
      "Ġensures": 4857,
      "ructure": 4858,
      "antic": 4859,
      "ĠIns": 4860,
      "ĠAssoci": 4861,
      "ometimes": 4862,
      "rich": 4863,
      "Ġ2013": 4864,
      "Ġantibiot": 4865,
      "Ġmetabol": 4866,
      "eper": 4867,
      "requ": 4868,
      "RO": 4869,
      "Ġbillion": 4870,
      "Ġdust": 4871,
      "Ġeducational": 4872,
      "point": 4873,
      "Ġdeliver": 4874,
      "Ġforces": 4875,
      "Ġcheese": 4876,
      "ressed": 4877,
      "uk": 4878,
      "ĠHar": 4879,
      "Ġfarmers": 4880,
      "Ġwheel": 4881,
      "Ġ2018": 4882,
      "erent": 4883,
      "ĠVal": 4884,
      "ĠÎ": 4885,
      "ĠIndian": 4886,
      "unity": 4887,
      "Ġshoot": 4888,
      "Ġhaz": 4889,
      "Ġiniti": 4890,
      "Ġplayer": 4891,
      "osph": 4892,
      "Ġconcentration": 4893,
      "Ġintelligence": 4894,
      "ception": 4895,
      "Ġkinds": 4896,
      "print": 4897,
      "Ġprocedure": 4898,
      "Ġinvolve": 4899,
      "Ġpartners": 4900,
      "Ġ<": 4901,
      "Ġcreates": 4902,
      "Ġoffering": 4903,
      "Ġbutton": 4904,
      "Ġturned": 4905,
      "iture": 4906,
      "Ġimproving": 4907,
      "Ġflo": 4908,
      "Ġimpacts": 4909,
      "Ġamazing": 4910,
      "Ġstock": 4911,
      "top": 4912,
      "Ġshared": 4913,
      "Ġ70": 4914,
      "Ġgrade": 4915,
      "Ġworry": 4916,
      "Ġminimum": 4917,
      "SA": 4918,
      "ologists": 4919,
      "Ġcrops": 4920,
      "ropical": 4921,
      "Ġshapes": 4922,
      "Ġchallenging": 4923,
      "Ġmobile": 4924,
      "anges": 4925,
      "ĠJohn": 4926,
      "Ġwait": 4927,
      "Ġstatus": 4928,
      "hemical": 4929,
      "Ġpictures": 4930,
      "Ġopin": 4931,
      "EL": 4932,
      "Ġcoffee": 4933,
      "Ġlabel": 4934,
      "mary": 4935,
      "zen": 4936,
      "Ġtransition": 4937,
      "hesis": 4938,
      "iration": 4939,
      "chers": 4940,
      "ĠPeople": 4941,
      "Ġ2016": 4942,
      "ĠAny": 4943,
      "tered": 4944,
      "ĠRiver": 4945,
      "Ġzero": 4946,
      "ĠApril": 4947,
      "ĠDevelop": 4948,
      "VID": 4949,
      "porary": 4950,
      "Ġreactions": 4951,
      "Ġawareness": 4952,
      "ĠFrench": 4953,
      "igen": 4954,
      "Ġsensitive": 4955,
      "Ġerror": 4956,
      "Ġmic": 4957,
      "idth": 4958,
      "Ġshowing": 4959,
      "rations": 4960,
      "Ġcapable": 4961,
      "ii": 4962,
      "Ġfasc": 4963,
      "Ġspin": 4964,
      "Once": 4965,
      "Ġcontainer": 4966,
      "Ġfocused": 4967,
      "Ġdream": 4968,
      "ĠHis": 4969,
      "ĠHist": 4970,
      "Ġfig": 4971,
      "ĠInternational": 4972,
      "yn": 4973,
      "Ġrenew": 4974,
      "weight": 4975,
      "Ġbelief": 4976,
      "Ġbees": 4977,
      "Ġperhaps": 4978,
      "Ġ2012": 4979,
      "Ġfold": 4980,
      "Ġ23": 4981,
      "Ġ2019": 4982,
      "Ġconclusion": 4983,
      "Ġwest": 4984,
      "Ġlaws": 4985,
      "inating": 4986,
      "ĠDesign": 4987,
      "Ġpurposes": 4988,
      "Ġ22": 4989,
      "mark": 4990,
      "Ġacad": 4991,
      "Ġtruly": 4992,
      "ĠInter": 4993,
      "rest": 4994,
      "Ġmajority": 4995,
      "Ġmonitor": 4996,
      "aming": 4997,
      "Ġsurrounding": 4998,
      "ĠGreat": 4999,
      "ube": 5000,
      "ĠMicro": 5001,
      "Ġfo": 5002,
      "Ġnames": 5003,
      "Ġbones": 5004,
      "ivil": 5005,
      "Ġeight": 5006,
      "Ġcomposition": 5007,
      "Ġplenty": 5008,
      "Ġpure": 5009,
      "fortun": 5010,
      "Ġphotograph": 5011,
      "ye": 5012,
      "orms": 5013,
      "crib": 5014,
      "otic": 5015,
      "Ġcompost": 5016,
      "what": 5017,
      "Ġlic": 5018,
      "umps": 5019,
      "Ġ2010": 5020,
      "En": 5021,
      "ĠLike": 5022,
      ".[": 5023,
      "Ġpreviously": 5024,
      "ĠBoth": 5025,
      "Ġleaving": 5026,
      "Ġcatch": 5027,
      "osen": 5028,
      "lies": 5029,
      "Ġabsolute": 5030,
      "Ġsmell": 5031,
      "Ġessay": 5032,
      "ĠAdd": 5033,
      "Ġtun": 5034,
      "Ġdecor": 5035,
      "Ġrefers": 5036,
      "MS": 5037,
      "Ġfilled": 5038,
      "down": 5039,
      "Ġestimated": 5040,
      "Ġwhose": 5041,
      "Ġsend": 5042,
      "bles": 5043,
      "active": 5044,
      "lim": 5045,
      "ĠPlan": 5046,
      "Ġlifestyle": 5047,
      "Ġgir": 5048,
      "ĠMc": 5049,
      "ingu": 5050,
      "Ġshad": 5051,
      "Ġgenerated": 5052,
      "Ġcontinues": 5053,
      "tion": 5054,
      "Ġcreation": 5055,
      "Ġcompounds": 5056,
      "==": 5057,
      "Ġdecrease": 5058,
      "Ġborn": 5059,
      "rie": 5060,
      "ials": 5061,
      "Ġble": 5062,
      "Ġminerals": 5063,
      "Ġrestaur": 5064,
      "Ġplane": 5065,
      "Ġatoms": 5066,
      "Ġaffects": 5067,
      "Ġfrag": 5068,
      "dule": 5069,
      "Ġprinting": 5070,
      "ĠBet": 5071,
      "ĠUp": 5072,
      "Ġpotat": 5073,
      "Ġfailure": 5074,
      "Ġcm": 5075,
      "Ġjournal": 5076,
      "asp": 5077,
      "Ġstatement": 5078,
      "Ġconcern": 5079,
      "28": 5080,
      "Ġtried": 5081,
      "sec": 5082,
      "Ġuniverse": 5083,
      "ĠProfess": 5084,
      "hus": 5085,
      "Ġspeaker": 5086,
      "lements": 5087,
      "ĠBas": 5088,
      "Ġdestro": 5089,
      "Ġnerv": 5090,
      "Ġparticipants": 5091,
      "Ġpil": 5092,
      "organ": 5093,
      "Ġfle": 5094,
      "comp": 5095,
      "Ġclinical": 5096,
      "going": 5097,
      "ĠLED": 5098,
      "Ġconducted": 5099,
      "Ġconcepts": 5100,
      "Ġreferred": 5101,
      "Ġaid": 5102,
      "rief": 5103,
      "Ġsides": 5104,
      "PA": 5105,
      "Ġsouth": 5106,
      "ĠWind": 5107,
      "Ġelectrons": 5108,
      "Ġflood": 5109,
      "Ġhoney": 5110,
      "Ġmechanism": 5111,
      "Ġpresented": 5112,
      "Ġtomat": 5113,
      "ibilities": 5114,
      "Ġprem": 5115,
      "Ġvisible": 5116,
      "plant": 5117,
      "Ġversat": 5118,
      "Ġselected": 5119,
      "Ġwaters": 5120,
      "arant": 5121,
      "irds": 5122,
      "roke": 5123,
      "Ġmotiv": 5124,
      "Ġcontrolled": 5125,
      "Ġcrop": 5126,
      "Ġproducing": 5127,
      "Ġcultiv": 5128,
      "Ġsurvive": 5129,
      "Ġcart": 5130,
      "Ġsequence": 5131,
      "Many": 5132,
      "opy": 5133,
      "Ġneuro": 5134,
      "ĠPhys": 5135,
      "rot": 5136,
      "De": 5137,
      "Ġvul": 5138,
      "90": 5139,
      "Ġstom": 5140,
      "Ġtrip": 5141,
      "itary": 5142,
      "Ġportion": 5143,
      "ormal": 5144,
      "Ġhousehold": 5145,
      "ented": 5146,
      "Ġowner": 5147,
      "Ġchronic": 5148,
      "Ġspaces": 5149,
      "ĠJuly": 5150,
      "ĠWhere": 5151,
      "ĠEnergy": 5152,
      "DA": 5153,
      "Ġperiods": 5154,
      "anes": 5155,
      "Ġseek": 5156,
      "Ġtut": 5157,
      "Ġship": 5158,
      "urthermore": 5159,
      "Ġrelig": 5160,
      "Ġcertainly": 5161,
      "ventional": 5162,
      "Ġconsidering": 5163,
      "Ġriver": 5164,
      "ĠEducation": 5165,
      "Ġclassroom": 5166,
      "pring": 5167,
      "Ġfiles": 5168,
      "ĠPat": 5169,
      "Ġcooling": 5170,
      "Ġmath": 5171,
      "Ġrein": 5172,
      "Ġskill": 5173,
      "Ġprinciples": 5174,
      "Ġfossil": 5175,
      "Ġspirit": 5176,
      "Ġfamiliar": 5177,
      "rowing": 5178,
      "Ġtrade": 5179,
      "Ġmild": 5180,
      "but": 5181,
      "Ġjump": 5182,
      "Ġtechnical": 5183,
      "Ġwouldn": 5184,
      "that": 5185,
      "75": 5186,
      "Ġspray": 5187,
      "Ġcycl": 5188,
      "Ġcapture": 5189,
      "ras": 5190,
      "Ġacids": 5191,
      "ĠCare": 5192,
      "Ġurban": 5193,
      "Ġrepresents": 5194,
      "Ġannual": 5195,
      "Over": 5196,
      "Ġslowly": 5197,
      "Ġbelong": 5198,
      "Ġvideos": 5199,
      "Ġgut": 5200,
      "Ġsharp": 5201,
      "ault": 5202,
      "Ġotherwise": 5203,
      "ĠMex": 5204,
      "Ġvirtual": 5205,
      "ĠWild": 5206,
      "uracy": 5207,
      "rote": 5208,
      "ĠTake": 5209,
      "Ġseeing": 5210,
      "Ġvel": 5211,
      "ĠMet": 5212,
      "Ġbudget": 5213,
      "Ġden": 5214,
      "Ġpin": 5215,
      "Ġextensive": 5216,
      "Ġfeedback": 5217,
      "erson": 5218,
      "ĠExpl": 5219,
      "Ġchocolate": 5220,
      "Ġ28": 5221,
      "Ġclothing": 5222,
      "Ġcareer": 5223,
      "oster": 5224,
      "Ġconsists": 5225,
      "Ġtraffic": 5226,
      "Ġshot": 5227,
      "ially": 5228,
      "ĠInc": 5229,
      "Ġsurvival": 5230,
      "Ġnormally": 5231,
      "inese": 5232,
      "Ġdamaged": 5233,
      "Ġwarming": 5234,
      "ugg": 5235,
      "Pre": 5236,
      "Ġmap": 5237,
      "Ġwhatever": 5238,
      "ĠCity": 5239,
      "inations": 5240,
      "ava": 5241,
      "Ġsong": 5242,
      "aul": 5243,
      "Ġwants": 5244,
      "Ġmechanical": 5245,
      "Ġpainting": 5246,
      "gy": 5247,
      "Ġneck": 5248,
      "Ġdisorders": 5249,
      "Ġtube": 5250,
      "Ġring": 5251,
      "pret": 5252,
      "nect": 5253,
      "Ġstable": 5254,
      "Ġdecided": 5255,
      "Ġhorses": 5256,
      "Ġphotography": 5257,
      "Ġcomputers": 5258,
      "ypes": 5259,
      "Ġinflammation": 5260,
      "Ġdivid": 5261,
      "ĠPlant": 5262,
      "Ġholes": 5263,
      "Ġwalking": 5264,
      "Ġtopics": 5265,
      "Ġunless": 5266,
      "Ġaer": 5267,
      "stract": 5268,
      "Ġadvent": 5269,
      "Ġseconds": 5270,
      "Ġplug": 5271,
      "Ġabund": 5272,
      "tra": 5273,
      "comes": 5274,
      "Ġshut": 5275,
      "Ġdiversity": 5276,
      "Ġproduces": 5277,
      "Ġcolon": 5278,
      "Ġampl": 5279,
      "Ġradiation": 5280,
      "Ġdecades": 5281,
      "Ġguess": 5282,
      "Ġemergency": 5283,
      "Ġinfluen": 5284,
      "Ġfur": 5285,
      "Ġmixed": 5286,
      "ĠDiff": 5287,
      "Ġnorth": 5288,
      "ĠIS": 5289,
      "ossible": 5290,
      "ĠPower": 5291,
      "Ġkil": 5292,
      "'.": 5293,
      "Ġconfig": 5294,
      "Ġcontaining": 5295,
      "Ġrecovery": 5296,
      "Ġclosely": 5297,
      "Ġassessment": 5298,
      "aker": 5299,
      "33": 5300,
      "ĠNet": 5301,
      "Ġtoler": 5302,
      "Ġchlor": 5303,
      "Ġfer": 5304,
      "ĠFlor": 5305,
      "Ġvarieties": 5306,
      "Ġinternet": 5307,
      "ulum": 5308,
      "Ġsufficient": 5309,
      "Ġcommand": 5310,
      "Ġinsights": 5311,
      "Ġ2011": 5312,
      "ĠII": 5313,
      "Ġbreath": 5314,
      "ĠFound": 5315,
      "US": 5316,
      "ĠFeb": 5317,
      "ĠMain": 5318,
      "RI": 5319,
      "Ġdomin": 5320,
      "Cons": 5321,
      "Ġlocations": 5322,
      "Ġrights": 5323,
      "itting": 5324,
      "Ġspent": 5325,
      "ĠHel": 5326,
      "Ġmarketing": 5327,
      "TS": 5328,
      "Ġformat": 5329,
      "Ġdefinition": 5330,
      "Ġinject": 5331,
      "ĠSupp": 5332,
      "ĠSan": 5333,
      "Ġturns": 5334,
      "LE": 5335,
      "Ġfunctional": 5336,
      "gin": 5337,
      "Ġclearly": 5338,
      "Ġprices": 5339,
      "amental": 5340,
      "ardens": 5341,
      "how": 5342,
      "mp": 5343,
      "ĠMark": 5344,
      "Ġcarried": 5345,
      "Ġvoice": 5346,
      "west": 5347,
      "Ġcompr": 5348,
      "More": 5349,
      "Ġsurvey": 5350,
      "paration": 5351,
      "order": 5352,
      "cope": 5353,
      "ĠSeptember": 5354,
      "Ġtested": 5355,
      "Ġsud": 5356,
      "Comp": 5357,
      "hors": 5358,
      "ĠKing": 5359,
      "olf": 5360,
      "ĠAugust": 5361,
      "Ġfoundation": 5362,
      "fall": 5363,
      "ĠAbout": 5364,
      "Ġintake": 5365,
      "Ġenable": 5366,
      "opes": 5367,
      "Ġhoriz": 5368,
      "idden": 5369,
      "Ġdownload": 5370,
      "Ġscenari": 5371,
      "Ġvolun": 5372,
      "Ġgall": 5373,
      "Ġrefrig": 5374,
      "Ġputting": 5375,
      "ĠpH": 5376,
      "Ġwindows": 5377,
      "Ġinner": 5378,
      "ĠSub": 5379,
      "cons": 5380,
      "Ġfacilit": 5381,
      "Ġpages": 5382,
      "aws": 5383,
      "ifier": 5384,
      "Ġwasn": 5385,
      "Ġseg": 5386,
      "ĠAfrican": 5387,
      "emy": 5388,
      "ovember": 5389,
      "apor": 5390,
      "Ġcab": 5391,
      "Ġattached": 5392,
      "Ġpercentage": 5393,
      "Ġlinked": 5394,
      "Ġanswers": 5395,
      "rus": 5396,
      "Ġmulti": 5397,
      "vis": 5398,
      "Ġcreatures": 5399,
      "Ġindu": 5400,
      "Ġphenomen": 5401,
      "Ġban": 5402,
      "Ġphysics": 5403,
      "----------------": 5404,
      "Ġcopper": 5405,
      "long": 5406,
      "uum": 5407,
      "Ġsolve": 5408,
      "Ġrow": 5409,
      "ĠInstead": 5410,
      "ache": 5411,
      "Ġcloser": 5412,
      "Ġremote": 5413,
      "Ġbigger": 5414,
      "Ġmolecular": 5415,
      "ĠSaf": 5416,
      "Ġformula": 5417,
      "Ġcorrectly": 5418,
      "iber": 5419,
      "Ġcollege": 5420,
      "Ġcopy": 5421,
      "box": 5422,
      "ĠEngine": 5423,
      "Not": 5424,
      "Ġinvestment": 5425,
      "Ġinteractions": 5426,
      "ĠSch": 5427,
      "><": 5428,
      "ĠExper": 5429,
      "Ġscr": 5430,
      "phone": 5431,
      "ĠPol": 5432,
      "CH": 5433,
      "Ġadminist": 5434,
      "sm": 5435,
      "Ġagre": 5436,
      "Ġdishes": 5437,
      "urch": 5438,
      "Ġahead": 5439,
      "Ġsudden": 5440,
      "ĠCheck": 5441,
      "Ġreduces": 5442,
      "Ġdatab": 5443,
      "ctic": 5444,
      "Ġcorrespond": 5445,
      "orous": 5446,
      "Ġviol": 5447,
      "Sc": 5448,
      "ĠSk": 5449,
      "Ġattrib": 5450,
      "dy": 5451,
      "gans": 5452,
      "Ġguidelines": 5453,
      "eling": 5454,
      "ĠThus": 5455,
      "Ġprey": 5456,
      "Ġbegins": 5457,
      "ĠLab": 5458,
      "ription": 5459,
      "Ġhunting": 5460,
      "Let": 5461,
      "Ġhappened": 5462,
      "Ġshoes": 5463,
      "fortunately": 5464,
      "Ġdecide": 5465,
      "aked": 5466,
      "Ġaudience": 5467,
      "ĠCounty": 5468,
      "ias": 5469,
      "Ġbuying": 5470,
      "Ġinstit": 5471,
      "Ġworkers": 5472,
      "orter": 5473,
      "Ġbroken": 5474,
      "Conclusion": 5475,
      "eless": 5476,
      "Ġmeeting": 5477,
      "Ġstages": 5478,
      "arsh": 5479,
      "Ġconfirm": 5480,
      "Ġ26": 5481,
      "Ġjud": 5482,
      "Ġvast": 5483,
      "ognitive": 5484,
      "ĠConsider": 5485,
      "Ġtum": 5486,
      "Ġsed": 5487,
      "Ġstation": 5488,
      "Ġobtained": 5489,
      "99": 5490,
      "ĠThrough": 5491,
      "Ġvulner": 5492,
      "Ġaccuracy": 5493,
      "Ġcomment": 5494,
      "ruary": 5495,
      "Ġpregnancy": 5496,
      "airy": 5497,
      "Ġdefinitely": 5498,
      "ara": 5499,
      "Ġmeals": 5500,
      "Ġcredit": 5501,
      "Ġbuildings": 5502,
      "cript": 5503,
      "Ġhelped": 5504,
      "Ġnovel": 5505,
      "Cont": 5506,
      "New": 5507,
      "Ġturning": 5508,
      "Ġdoub": 5509,
      "Ġpowder": 5510,
      "Ġstomach": 5511,
      "Ġindependent": 5512,
      "Ġinstruction": 5513,
      "Ġcompound": 5514,
      "Ġapproaches": 5515,
      "Ġengage": 5516,
      "hips": 5517,
      "Ġbear": 5518,
      "Ġprompt": 5519,
      "Ġlooked": 5520,
      "roid": 5521,
      "Ġcalcium": 5522,
      "Ġmir": 5523,
      "Ġraised": 5524,
      "icon": 5525,
      "Ġperspective": 5526,
      "Ġdisorder": 5527,
      "Ġmal": 5528,
      "Ġreports": 5529,
      "ĠDec": 5530,
      "Ġcolle": 5531,
      "ĠKnow": 5532,
      "Ġunivers": 5533,
      "Ġbread": 5534,
      "Ġhabits": 5535,
      "PT": 5536,
      "âĪ": 5537,
      "Ġproport": 5538,
      "Ġintended": 5539,
      "Ġinteraction": 5540,
      "cel": 5541,
      "ĠLight": 5542,
      "Ġsheet": 5543,
      "ĠTex": 5544,
      "ama": 5545,
      "Ġgun": 5546,
      "oys": 5547,
      "Ġpounds": 5548,
      "ifications": 5549,
      "cember": 5550,
      "Ġsubstance": 5551,
      "Ġadds": 5552,
      "Ġinstalled": 5553,
      "First": 5554,
      "Ġalumin": 5555,
      "iler": 5556,
      "Ġexperiments": 5557,
      "isation": 5558,
      "Ġpassed": 5559,
      "rors": 5560,
      "Ġtwice": 5561,
      "Ġsuggested": 5562,
      "acters": 5563,
      "Ġlawn": 5564,
      "ĠOctober": 5565,
      "ĠStep": 5566,
      "gers": 5567,
      "vents": 5568,
      "Ġcareful": 5569,
      "Ġpreventing": 5570,
      "Ġeconomy": 5571,
      "mic": 5572,
      "ĠSee": 5573,
      "ags": 5574,
      "ĠJanuary": 5575,
      "ocking": 5576,
      "Ġdiscussion": 5577,
      "ionally": 5578,
      "Ġdecl": 5579,
      "ĠCOVID": 5580,
      "Ġsharing": 5581,
      "Ġprotected": 5582,
      "According": 5583,
      "Ġblow": 5584,
      "Ġbalanced": 5585,
      "Ġfixed": 5586,
      "Ġpup": 5587,
      "Ġnar": 5588,
      "Ġinnovative": 5589,
      "Ġnurs": 5590,
      "Ġindex": 5591,
      "Ġwash": 5592,
      "Ġclosed": 5593,
      "Ġcooked": 5594,
      "ander": 5595,
      "ĠOff": 5596,
      "Ġdioxide": 5597,
      "ado": 5598,
      "ĠOrgan": 5599,
      "Ġsport": 5600,
      "ivery": 5601,
      "Ġcollected": 5602,
      "Under": 5603,
      "Ġfundamental": 5604,
      "Ġrapidly": 5605,
      "arn": 5606,
      "asses": 5607,
      "Ġaccum": 5608,
      "Ġshift": 5609,
      "edia": 5610,
      "Ġperman": 5611,
      "IV": 5612,
      "eras": 5613,
      "Ġbaking": 5614,
      "Ġrab": 5615,
      "Ġthoughts": 5616,
      "Ġdress": 5617,
      "etics": 5618,
      "Ġdent": 5619,
      "Ġconnections": 5620,
      "Use": 5621,
      "ĠCollege": 5622,
      "Ġmedications": 5623,
      "Ġfelt": 5624,
      "Ġagree": 5625,
      "Ġsubstances": 5626,
      "Ġpests": 5627,
      "Ġenthus": 5628,
      "Ġseven": 5629,
      "Ġpanel": 5630,
      "Ġdepression": 5631,
      "Ġsick": 5632,
      "Ġdeeper": 5633,
      "Ġnation": 5634,
      "Ġbiod": 5635,
      "Ġtight": 5636,
      "Ġmeant": 5637,
      "Ġmathemat": 5638,
      "Ġagriculture": 5639,
      "oyal": 5640,
      "Ġwoman": 5641,
      "Ġopening": 5642,
      "Ġboat": 5643,
      "Ġworldwide": 5644,
      "Ġblocks": 5645,
      "Ġcompleted": 5646,
      "Ġnitrogen": 5647,
      "Ġfirm": 5648,
      "Ġremoving": 5649,
      "Ġinjuries": 5650,
      "ait": 5651,
      "??": 5652,
      "500": 5653,
      "Ġhardware": 5654,
      "ĠGarden": 5655,
      "Ġbiggest": 5656,
      "Ġord": 5657,
      "Ġlaser": 5658,
      "Ġbio": 5659,
      "Ġoffered": 5660,
      "Ġthermal": 5661,
      "Ġdoll": 5662,
      "Ġliver": 5663,
      "Ġsustainability": 5664,
      "allel": 5665,
      ");": 5666,
      "Ġgather": 5667,
      "Dr": 5668,
      "Ġmanner": 5669,
      "asure": 5670,
      "irus": 5671,
      "Ġaccident": 5672,
      "yth": 5673,
      "Ġlesson": 5674,
      "ographic": 5675,
      "ĠAnother": 5676,
      "Ġtow": 5677,
      "ĠChinese": 5678,
      "reek": 5679,
      "ĠLearning": 5680,
      "Ġnotes": 5681,
      "bur": 5682,
      "Ġrecipe": 5683,
      "Ġgreenhouse": 5684,
      "charge": 5685,
      "Ġdiagnosis": 5686,
      "iated": 5687,
      "Ġmedication": 5688,
      "Ġfurniture": 5689,
      "uter": 5690,
      "Ġopposite": 5691,
      "Ġhyper": 5692,
      "Fe": 5693,
      "amins": 5694,
      "Ġraise": 5695,
      "Ġtransp": 5696,
      "',": 5697,
      "ĠRuss": 5698,
      "ĠProject": 5699,
      "pected": 5700,
      "Sp": 5701,
      "ynt": 5702,
      "Ġrace": 5703,
      "een": 5704,
      "Ġcorn": 5705,
      "uilding": 5706,
      "Ġstain": 5707,
      "ĠBen": 5708,
      "ĠProt": 5709,
      "Ġflying": 5710,
      "Ġdiscovery": 5711,
      "Ġforget": 5712,
      "PC": 5713,
      "Ġitem": 5714,
      "Ġtrained": 5715,
      "Ġschedule": 5716,
      "vit": 5717,
      "Ġdespite": 5718,
      "iled": 5719,
      "ĠTechnology": 5720,
      "IL": 5721,
      "Ġcommunicate": 5722,
      "Ġdefic": 5723,
      "Ġpossess": 5724,
      "uzz": 5725,
      "oding": 5726,
      "Ġath": 5727,
      "Ġpolar": 5728,
      "ener": 5729,
      "iance": 5730,
      "Ġincreasingly": 5731,
      "ĠFlorida": 5732,
      "ĠIN": 5733,
      "Ġrecognize": 5734,
      "Ġbiology": 5735,
      "Ġinstallation": 5736,
      "Ġvariable": 5737,
      "Ġbelieved": 5738,
      "oke": 5739,
      "rust": 5740,
      "Ġmovements": 5741,
      "ĠSun": 5742,
      "Ġoccup": 5743,
      "Ġstability": 5744,
      "ivalent": 5745,
      "Ġexplan": 5746,
      "Ġlibrary": 5747,
      "ĠDav": 5748,
      "Rem": 5749,
      "ĠMus": 5750,
      "32": 5751,
      "rooms": 5752,
      "Ġyield": 5753,
      "Although": 5754,
      "Ġcovers": 5755,
      "Ġpreserv": 5756,
      "Ġmoved": 5757,
      "Ġconsumers": 5758,
      "Ġexcessive": 5759,
      "iform": 5760,
      "Ġworse": 5761,
      "apers": 5762,
      "Ġpreferences": 5763,
      "Ġhaven": 5764,
      "Ġunlike": 5765,
      "Ġexplains": 5766,
      "ĠTest": 5767,
      "dent": 5768,
      "ĠStudents": 5769,
      "Ġseeking": 5770,
      "Ġcul": 5771,
      "Ġlessons": 5772,
      "aning": 5773,
      "volution": 5774,
      "Ġcalories": 5775,
      "Ġcapabilities": 5776,
      "Ġindustries": 5777,
      "Ġstores": 5778,
      "Ġcircum": 5779,
      "Ġfamous": 5780,
      "Ġdelicious": 5781,
      "Ġfriendly": 5782,
      "Ġsuccessfully": 5783,
      "Ġexciting": 5784,
      "bra": 5785,
      "Ġpanels": 5786,
      "Ġinsurance": 5787,
      "mers": 5788,
      "asive": 5789,
      "Ġsensors": 5790,
      "Ġhistorical": 5791,
      "icing": 5792,
      "ocity": 5793,
      "Ġexplained": 5794,
      "alks": 5795,
      "Ġretain": 5796,
      "ĠRel": 5797,
      "rue": 5798,
      "unning": 5799,
      "inn": 5800,
      "Ġfinish": 5801,
      "Ġdedicated": 5802,
      "Ġsupplement": 5803,
      "Ġprocedures": 5804,
      "Ġ2021": 5805,
      "ĠTexas": 5806,
      "atin": 5807,
      "OL": 5808,
      "ocy": 5809,
      "ndrome": 5810,
      "Ġpros": 5811,
      "anted": 5812,
      "Ġcharacters": 5813,
      "Ġregul": 5814,
      "App": 5815,
      "Ġenab": 5816,
      "From": 5817,
      "Ġoven": 5818,
      "Ġoutcomes": 5819,
      "Ġears": 5820,
      "Ġconfidence": 5821,
      "ĠSociety": 5822,
      "Ġdiscussed": 5823,
      "ĠStart": 5824,
      "eries": 5825,
      "Ġmetals": 5826,
      "ĠExam": 5827,
      "Ġprofessor": 5828,
      "Ġswimming": 5829,
      "36": 5830,
      "Ġoverl": 5831,
      "Ġpossibly": 5832,
      "ĠEast": 5833,
      "ĠDet": 5834,
      "Ġmission": 5835,
      "Ġspots": 5836,
      "rite": 5837,
      "Ġexploring": 5838,
      "ĠOb": 5839,
      "Ġemployees": 5840,
      "iest": 5841,
      "lin": 5842,
      "ĠGerman": 5843,
      "itors": 5844,
      "Ġflour": 5845,
      "Ġdriver": 5846,
      "Ġrig": 5847,
      "Ġclothes": 5848,
      "Ġsales": 5849,
      "ĠLife": 5850,
      "tt": 5851,
      "Ġgave": 5852,
      "Ġstring": 5853,
      "Ġregulations": 5854,
      "=\"": 5855,
      "Ġdrinking": 5856,
      "roph": 5857,
      "Ġprogramming": 5858,
      "Ġcompetition": 5859,
      "ford": 5860,
      "Ġknows": 5861,
      "Ġparas": 5862,
      "ĠTwo": 5863,
      "ompl": 5864,
      "ĠMac": 5865,
      "Ġ>": 5866,
      "ĠCat": 5867,
      "Ġpeace": 5868,
      "Ġdram": 5869,
      "Ġadequ": 5870,
      "acific": 5871,
      "ĠSet": 5872,
      "arium": 5873,
      "ĠWhite": 5874,
      "Ġyog": 5875,
      "Ġagricultural": 5876,
      "ĠAtl": 5877,
      "ĠToday": 5878,
      "Ġcoordin": 5879,
      "39": 5880,
      "ĠGold": 5881,
      "Ġconsequences": 5882,
      "Ġtip": 5883,
      "Ġemotions": 5884,
      "Ġbehaviors": 5885,
      "Ġdiagram": 5886,
      "ĠWork": 5887,
      "riers": 5888,
      "eren": 5889,
      "ifies": 5890,
      "itter": 5891,
      "ĠLa": 5892,
      "Ġrocks": 5893,
      "Ġdetection": 5894,
      "ophy": 5895,
      "Ġ35": 5896,
      "Ġ27": 5897,
      "Ġinformed": 5898,
      "Ġment": 5899,
      "Ġunderlying": 5900,
      "Ġcalls": 5901,
      "Ġconstantly": 5902,
      "ĠHome": 5903,
      "Ġye": 5904,
      "Ġtor": 5905,
      "Ġaest": 5906,
      "cule": 5907,
      "ĠAssociation": 5908,
      "Ġnose": 5909,
      "bris": 5910,
      "Ġphysic": 5911,
      "ĠTHE": 5912,
      "rix": 5913,
      "Ġhandling": 5914,
      "Ġcompare": 5915,
      "iders": 5916,
      "aint": 5917,
      "Ġsecondary": 5918,
      "Ġruns": 5919,
      "Ġplayed": 5920,
      "Ġcoal": 5921,
      "Ġbrid": 5922,
      "Ġrecords": 5923,
      "acts": 5924,
      "Ġmeasurement": 5925,
      "Ġconventional": 5926,
      "Ġforests": 5927,
      "Ġmechanisms": 5928,
      "Ġbreathing": 5929,
      "Ġpark": 5930,
      "ĠRef": 5931,
      "uis": 5932,
      "ĠHave": 5933,
      "win": 5934,
      "Ġmembrane": 5935,
      "hand": 5936,
      "Ġusage": 5937,
      "Ġreplaced": 5938,
      "Ġfan": 5939,
      "ĠMich": 5940,
      "Ġnetworks": 5941,
      "Ġhumidity": 5942,
      "oper": 5943,
      "Reg": 5944,
      "Ġrecorded": 5945,
      "idents": 5946,
      "Ġages": 5947,
      "Ġequation": 5948,
      "Ġsession": 5949,
      "Ġincl": 5950,
      "ĠRemember": 5951,
      "Ġwearing": 5952,
      "Ġhospital": 5953,
      "ĠTV": 5954,
      "Ġconflic": 5955,
      "Ġremaining": 5956,
      "Ġcourses": 5957,
      "Ġguidance": 5958,
      "Ġarray": 5959,
      "Ġnutrient": 5960,
      "well": 5961,
      "ĠService": 5962,
      "no": 5963,
      "Ġnerve": 5964,
      "athy": 5965,
      "ĠGood": 5966,
      "Ġoral": 5967,
      "Ġends": 5968,
      "Ġspeech": 5969,
      "Ġpoison": 5970,
      "Ġstudying": 5971,
      "reate": 5972,
      "Ġfemales": 5973,
      "uits": 5974,
      "ĠTur": 5975,
      "01": 5976,
      "cal": 5977,
      "Ġstands": 5978,
      "Ġrequest": 5979,
      "Figure": 5980,
      "ascular": 5981,
      "ker": 5982,
      "ĠJour": 5983,
      "Ġsupporting": 5984,
      "Ġconsume": 5985,
      "rence": 5986,
      "berry": 5987,
      "Ġzone": 5988,
      "Ġcardi": 5989,
      "vin": 5990,
      "otes": 5991,
      "Ġproposed": 5992,
      "Ġpolic": 5993,
      "Ġrecycling": 5994,
      "Ġtruth": 5995,
      "Ġmanual": 5996,
      "Ġindoor": 5997,
      "Ġshed": 5998,
      "Ġmoves": 5999,
      "Ġ45": 6000,
      "Ġchannel": 6001,
      "Ġcards": 6002,
      "cest": 6003,
      "zer": 6004,
      "ĠDef": 6005,
      "ĠExt": 6006,
      "Ġvalid": 6007,
      "azon": 6008,
      "Ġsky": 6009,
      "Ġreward": 6010,
      "ĠBel": 6011,
      "Ġsecret": 6012,
      "Ġoperate": 6013,
      "Ġtissues": 6014,
      "Ġauthors": 6015,
      "Ġ{": 6016,
      "Ġcos": 6017,
      "ĠNovember": 6018,
      "men": 6019,
      "Ġbasically": 6020,
      "44": 6021,
      "Ġvaccine": 6022,
      "ĠBre": 6023,
      "ĠTime": 6024,
      "Ġsupports": 6025,
      "Ġdestroy": 6026,
      "Ġwrote": 6027,
      "Ġinterpret": 6028,
      "Ġcontinued": 6029,
      "Ġloose": 6030,
      "Ġreserv": 6031,
      "lings": 6032,
      "Ġpolitical": 6033,
      "ĠOpen": 6034,
      "Ġscrew": 6035,
      "ham": 6036,
      "Ġsauce": 6037,
      "ffective": 6038,
      "stream": 6039,
      "BC": 6040,
      "arter": 6041,
      "Ġ2009": 6042,
      "cher": 6043,
      "ĠControl": 6044,
      "Ġdynamic": 6045,
      "Ġvacuum": 6046,
      "ĠOF": 6047,
      "Ġfeelings": 6048,
      "iam": 6049,
      "Ġstudied": 6050,
      "Ġdrag": 6051,
      "otton": 6052,
      "Ġentirely": 6053,
      "Ġmanufacturer": 6054,
      "uls": 6055,
      "haust": 6056,
      "Ġfacts": 6057,
      "ĠColor": 6058,
      "Ġske": 6059,
      "iability": 6060,
      "Ġteams": 6061,
      "Ġacademic": 6062,
      "Ġmineral": 6063,
      "Ġedges": 6064,
      "IM": 6065,
      "Ġmyself": 6066,
      "Ġride": 6067,
      "Ġ500": 6068,
      "ĠGuide": 6069,
      "Ġtrends": 6070,
      "Ġbreeds": 6071,
      "âĢĭ": 6072,
      "Ġanywhere": 6073,
      "Ġscene": 6074,
      "Ġexercises": 6075,
      "Ġlun": 6076,
      "overn": 6077,
      "Ġbags": 6078,
      "Ġmissing": 6079,
      "Ġdelivery": 6080,
      "Ġtitle": 6081,
      "ĠDist": 6082,
      "Ġcoc": 6083,
      "ridge": 6084,
      "cover": 6085,
      "Ġfollows": 6086,
      "Ġpuppy": 6087,
      "ette": 6088,
      "Te": 6089,
      "Ġfinally": 6090,
      "Ġknowing": 6091,
      "ĠAsia": 6092,
      "Ġachieved": 6093,
      "riculum": 6094,
      "Ġdirt": 6095,
      "Ġcontinuous": 6096,
      "Ġhundreds": 6097,
      "Ġlinks": 6098,
      "Ġrefriger": 6099,
      "ĠCam": 6100,
      "Ġchart": 6101,
      "Ġmassive": 6102,
      "ĠSl": 6103,
      "Ġkeeps": 6104,
      "Ġarrange": 6105,
      "Ġshade": 6106,
      "Ġdepos": 6107,
      "Ġframew": 6108,
      "ĠAng": 6109,
      "Ġrestrict": 6110,
      "vol": 6111,
      "Ġmales": 6112,
      "Ġparameters": 6113,
      "Ġinterface": 6114,
      "iratory": 6115,
      "Ġmeasurements": 6116,
      "ĠFore": 6117,
      "Ġapplying": 6118,
      "Ġtransportation": 6119,
      "38": 6120,
      "Ġdiameter": 6121,
      "Ġdebris": 6122,
      "ĠLook": 6123,
      "Ġengaging": 6124,
      "Ġvegetable": 6125,
      "DC": 6126,
      "Ġimagine": 6127,
      "Ġsector": 6128,
      "oves": 6129,
      "Ġorange": 6130,
      "Ġcreativity": 6131,
      "Ġcities": 6132,
      "Ġpest": 6133,
      "ĠNatural": 6134,
      "Ġstronger": 6135,
      "Ġlisted": 6136,
      "itivity": 6137,
      "Ġsupported": 6138,
      "Ġsubstant": 6139,
      "Ġmort": 6140,
      "ĠRet": 6141,
      "ĠDecember": 6142,
      "Ġdelay": 6143,
      "Ġreplacement": 6144,
      "Ġbehaviour": 6145,
      "Ġaccessible": 6146,
      "Ġarticles": 6147,
      "Ġweigh": 6148,
      "Ġjobs": 6149,
      "Ġtrigger": 6150,
      "eria": 6151,
      "bility": 6152,
      "you": 6153,
      "Ġcameras": 6154,
      "Ġlenses": 6155,
      "ĠFebruary": 6156,
      "Get": 6157,
      "Ġsafely": 6158,
      "Ġgravity": 6159,
      "lers": 6160,
      "Ġchapter": 6161,
      "Ġaccompl": 6162,
      "Ġchosen": 6163,
      "Ġmining": 6164,
      "Me": 6165,
      "Ġphosph": 6166,
      "from": 6167,
      "ota": 6168,
      "Ġion": 6169,
      "Ġlock": 6170,
      "Ġseam": 6171,
      "Ġvalve": 6172,
      "Ġwish": 6173,
      "Ġopinion": 6174,
      "Ġmes": 6175,
      "earchers": 6176,
      "Or": 6177,
      "osal": 6178,
      "antly": 6179,
      "Ġimprovement": 6180,
      "Ġfacilities": 6181,
      "Ġtropical": 6182,
      "Ġserves": 6183,
      "ĠScient": 6184,
      "Ġsen": 6185,
      "Ġmice": 6186,
      "Ġcheap": 6187,
      "Ġgro": 6188,
      "Ġsight": 6189,
      "Ġholds": 6190,
      "Ġrecept": 6191,
      "Ġsusp": 6192,
      "ĠNature": 6193,
      "Ġbee": 6194,
      "Ġextended": 6195,
      "fe": 6196,
      "Ġparty": 6197,
      "Ġgrows": 6198,
      "Ġprotective": 6199,
      "cific": 6200,
      "Ġpipe": 6201,
      "la": 6202,
      "Ġouter": 6203,
      "itches": 6204,
      "EO": 6205,
      "Ġindicates": 6206,
      "Ġthrive": 6207,
      "Ġasking": 6208,
      "Ġmillions": 6209,
      "using": 6210,
      "Ġpreparation": 6211,
      "Ġvolunte": 6212,
      "//": 6213,
      "asy": 6214,
      "rastructure": 6215,
      "Ġcrus": 6216,
      "Ġgardens": 6217,
      "Ġinhib": 6218,
      "Ġstructural": 6219,
      "ĠInf": 6220,
      "Ġbrings": 6221,
      "Ġclock": 6222,
      "Ġletter": 6223,
      "Ġvitamins": 6224,
      "Ġdinos": 6225,
      "Ġgone": 6226,
      "Ġparallel": 6227,
      "Ġobst": 6228,
      "alled": 6229,
      "Rec": 6230,
      "Ġminor": 6231,
      "Ġmm": 6232,
      "outs": 6233,
      "Ġeveryday": 6234,
      "ilos": 6235,
      "Ġimpossible": 6236,
      "Ġtaught": 6237,
      "Ġsatisf": 6238,
      "Ind": 6239,
      "Ġbrief": 6240,
      "Ġwashing": 6241,
      "Ġinch": 6242,
      "Ġ300": 6243,
      "ĠPort": 6244,
      "ĠEngland": 6245,
      "Ġinnovation": 6246,
      "Ġstrain": 6247,
      "Before": 6248,
      "Ġbranches": 6249,
      "Ġrevolution": 6250,
      "Ġped": 6251,
      "comm": 6252,
      "ĠBro": 6253,
      "Ġmanip": 6254,
      "Ġ197": 6255,
      "Ġspecialized": 6256,
      "Ġbeans": 6257,
      "ĠData": 6258,
      "Ġvertical": 6259,
      "Ġembra": 6260,
      "Ġran": 6261,
      "Ġresponses": 6262,
      "ĠPlease": 6263,
      "Ġshif": 6264,
      "inction": 6265,
      "Ġstyles": 6266,
      "Ġremoval": 6267,
      "uing": 6268,
      "Ġcloud": 6269,
      "Ġherb": 6270,
      "Ġbank": 6271,
      "Ġcognitive": 6272,
      "Ġminute": 6273,
      "Ġwhereas": 6274,
      "Ġtrim": 6275,
      "Ġrenewable": 6276,
      "Ġefficiently": 6277,
      "48": 6278,
      "Ġpurs": 6279,
      "Ġham": 6280,
      "ĠOcean": 6281,
      "Â·": 6282,
      "Ġcast": 6283,
      "uts": 6284,
      "Ġinfected": 6285,
      "Ġequivalent": 6286,
      "Ġjoin": 6287,
      "Ġblo": 6288,
      "Ġformer": 6289,
      "Ġdim": 6290,
      "ĠTer": 6291,
      "Ġplus": 6292,
      "Ġmeasuring": 6293,
      "Ġchemistry": 6294,
      "under": 6295,
      "Ġhabitats": 6296,
      "Ġdescription": 6297,
      "zed": 6298,
      "ĠMedic": 6299,
      "Ġcord": 6300,
      "Pe": 6301,
      "ĠChildren": 6302,
      "Ġalt": 6303,
      "acc": 6304,
      "angle": 6305,
      "Ġ2008": 6306,
      "ĠIsland": 6307,
      "ĠOpt": 6308,
      "Ġabsorb": 6309,
      "Ġcommitment": 6310,
      "astern": 6311,
      "Ġjew": 6312,
      "ĠSea": 6313,
      "Ġargument": 6314,
      "Ġcharging": 6315,
      "Ġmilitary": 6316,
      "Ġbite": 6317,
      "inated": 6318,
      "abil": 6319,
      "Le": 6320,
      "AB": 6321,
      "Ġfrequent": 6322,
      "Ġintroduction": 6323,
      "ket": 6324,
      "Ġassistance": 6325,
      "Ġfault": 6326,
      "Ġorgans": 6327,
      "Ġgreatly": 6328,
      "Ġresponsibility": 6329,
      "ĠCommon": 6330,
      "atur": 6331,
      "Ġminimal": 6332,
      "ĠBay": 6333,
      "fit": 6334,
      "Ġguarant": 6335,
      "ondon": 6336,
      "Ġmountain": 6337,
      "angered": 6338,
      "Ġfarming": 6339,
      "ĠMuse": 6340,
      "Ġcontrols": 6341,
      "Ġoxid": 6342,
      "Ġol": 6343,
      "Ġserved": 6344,
      "Ġexpertise": 6345,
      "ĠDevelopment": 6346,
      "Ġminimize": 6347,
      "37": 6348,
      "Ġcivil": 6349,
      "illa": 6350,
      "Ġinsulation": 6351,
      "ðŁ": 6352,
      "Ġvelocity": 6353,
      "Ġnorthern": 6354,
      "Ġstanding": 6355,
      "Since": 6356,
      "ĠSum": 6357,
      "Ġchol": 6358,
      "anged": 6359,
      "Ġrely": 6360,
      "Ġfinished": 6361,
      "Ġdimens": 6362,
      "level": 6363,
      "Ġcomparison": 6364,
      "Ġhappening": 6365,
      "esity": 6366,
      "Ġunus": 6367,
      "Ġengines": 6368,
      "ĠWashing": 6369,
      "akers": 6370,
      "ĠVol": 6371,
      "Ġinterior": 6372,
      "nel": 6373,
      "Ġveterin": 6374,
      "ĠRob": 6375,
      "ĠYear": 6376,
      "Ġvessels": 6377,
      "ulin": 6378,
      "Ġconcerned": 6379,
      "son": 6380,
      "Ġthanks": 6381,
      "Ġsouthern": 6382,
      "ãĢ": 6383,
      "onge": 6384,
      "Ġmeters": 6385,
      "Ġsitting": 6386,
      "ĠWeb": 6387,
      "Ġtea": 6388,
      "Ġlisten": 6389,
      "ĠWorks": 6390,
      "Ġtap": 6391,
      ".âĢĿ": 6392,
      "ontal": 6393,
      "Ġmolecule": 6394,
      "Ġresil": 6395,
      "Ġneutral": 6396,
      "Ġartists": 6397,
      "Ġdistingu": 6398,
      "ĠHistory": 6399,
      "Ġbowl": 6400,
      "Ġsuffer": 6401,
      "istor": 6402,
      "pet": 6403,
      "Ġcas": 6404,
      "ĠĠĠ": 6405,
      "Ġfewer": 6406,
      "47": 6407,
      "Ġseal": 6408,
      "Ġamb": 6409,
      "Ġpassion": 6410,
      "Ġton": 6411,
      "ĠSal": 6412,
      "Ġpromoting": 6413,
      "obal": 6414,
      "Ġpix": 6415,
      "Ġirrit": 6416,
      "ĠManagement": 6417,
      "Ġalgorithms": 6418,
      "Ġcampa": 6419,
      "Ġgardening": 6420,
      "Ġcable": 6421,
      "Ġdomestic": 6422,
      "ĠPacific": 6423,
      "Ġvict": 6424,
      "Ġexhaust": 6425,
      "Ġmanufacturers": 6426,
      "ĠJapanese": 6427,
      "ĠDog": 6428,
      "normal": 6429,
      "sts": 6430,
      "ague": 6431,
      "Ġchances": 6432,
      "stone": 6433,
      "Ġtutorial": 6434,
      "Ġresol": 6435,
      "55": 6436,
      "Ġadvert": 6437,
      "Ġultimately": 6438,
      "Ġatom": 6439,
      "Ġcorner": 6440,
      "AI": 6441,
      "Ġdivided": 6442,
      "Ġinterview": 6443,
      "ĠVis": 6444,
      "Ġattach": 6445,
      "Ġfascinating": 6446,
      "Ġtown": 6447,
      "Ġremark": 6448,
      "Ġchromos": 6449,
      "rical": 6450,
      "Ġloved": 6451,
      "Ġtrouble": 6452,
      "Ġnoted": 6453,
      "Ġflavors": 6454,
      "opic": 6455,
      "Ġcollaboration": 6456,
      "Ġecosystems": 6457,
      "##": 6458,
      "Ġmicrob": 6459,
      "Using": 6460,
      "Ġattend": 6461,
      "Ġenthusi": 6462,
      "roc": 6463,
      "then": 6464,
      "Rel": 6465,
      "Ġyard": 6466,
      "Ġfeels": 6467,
      "avy": 6468,
      "aughter": 6469,
      "alysis": 6470,
      "Ġcontamin": 6471,
      "Ġmanaging": 6472,
      "Ġprinciple": 6473,
      "ĠAmericans": 6474,
      "kay": 6475,
      "Ġunw": 6476,
      "Ġretur": 6477,
      "Ġscan": 6478,
      "ĠGr": 6479,
      "zym": 6480,
      "phones": 6481,
      "SC": 6482,
      "Ġsoap": 6483,
      "Ġdatabase": 6484,
      "ĠStand": 6485,
      "Ġtric": 6486,
      "Ġentertain": 6487,
      "Ġempt": 6488,
      "Ġease": 6489,
      "pling": 6490,
      "Ġpredators": 6491,
      "ĠMount": 6492,
      "Ġ29": 6493,
      "ĠLearn": 6494,
      "Ġtape": 6495,
      "ĠFoundation": 6496,
      "Ġwings": 6497,
      "Ġclassic": 6498,
      "uous": 6499,
      "Ġstars": 6500,
      "Ġparticle": 6501,
      "tic": 6502,
      "umes": 6503,
      "Ġsupplies": 6504,
      "TH": 6505,
      "Ġhur": 6506,
      "Ġkne": 6507,
      "ĠMexico": 6508,
      "ĠSol": 6509,
      "Ġmenu": 6510,
      "Ġperfectly": 6511,
      "Ġextent": 6512,
      "Ġexpans": 6513,
      "entle": 6514,
      "Ġloop": 6515,
      "Ġautomatically": 6516,
      "Ġalter": 6517,
      "Ġexchange": 6518,
      "enses": 6519,
      "Ġcyl": 6520,
      "Ġlaboratory": 6521,
      "press": 6522,
      "gal": 6523,
      "urb": 6524,
      "Ġrealize": 6525,
      "ĠLake": 6526,
      "Ġpaid": 6527,
      "Ġlik": 6528,
      "imental": 6529,
      "Ġcere": 6530,
      "Ġharder": 6531,
      "ĠSpace": 6532,
      "Other": 6533,
      "Ġwatching": 6534,
      "Ġfairly": 6535,
      "ilation": 6536,
      "esides": 6537,
      "Ġfinger": 6538,
      "Ġsignificance": 6539,
      "ods": 6540,
      "Ġluck": 6541,
      "ka": 6542,
      "soft": 6543,
      "Ġwilling": 6544,
      "Ġflexibility": 6545,
      "Ġplanted": 6546,
      "Ġancest": 6547,
      "Ġunderst": 6548,
      "Ġbacterial": 6549,
      "Ġplatforms": 6550,
      "Stud": 6551,
      "amps": 6552,
      "icity": 6553,
      "hemistry": 6554,
      "making": 6555,
      "IP": 6556,
      "Ġviruses": 6557,
      "band": 6558,
      "Ġcouldn": 6559,
      "Ġnutritional": 6560,
      "65": 6561,
      "Ġyes": 6562,
      "Ġgluc": 6563,
      "Ġaluminum": 6564,
      "atus": 6565,
      "ĠBefore": 6566,
      "Ġtherap": 6567,
      "ugs": 6568,
      "Ġreached": 6569,
      "Ġsubjects": 6570,
      "medi": 6571,
      "Don": 6572,
      "Ġrecognition": 6573,
      "Ġnuclear": 6574,
      "opl": 6575,
      "Ġvine": 6576,
      "ether": 6577,
      "agues": 6578,
      "ĠAP": 6579,
      "Ġov": 6580,
      "Ġsmoke": 6581,
      "Ġintric": 6582,
      "Ġcav": 6583,
      "ĠAM": 6584,
      "tical": 6585,
      "Ġnecessarily": 6586,
      "ĠLong": 6587,
      "34": 6588,
      "Ġresistant": 6589,
      "ĠFurthermore": 6590,
      "Ġ2000": 6591,
      "Ġfitness": 6592,
      "Ġtick": 6593,
      "Ġserving": 6594,
      "Ġtast": 6595,
      "Ġtire": 6596,
      "atric": 6597,
      "Ġhealing": 6598,
      "Ġproductivity": 6599,
      "ĠMuseum": 6600,
      "Ġpossibility": 6601,
      "Ġdial": 6602,
      "ĠBr": 6603,
      "Ġbuff": 6604,
      "Ġlived": 6605,
      "Ġpand": 6606,
      "Ġsessions": 6607,
      "fly": 6608,
      "Ġturb": 6609,
      "Ġrecipes": 6610,
      "aired": 6611,
      "Ġblind": 6612,
      "Ġwidth": 6613,
      "Ġclar": 6614,
      "Ġflexible": 6615,
      "Ġdairy": 6616,
      "Ġenables": 6617,
      "arge": 6618,
      "ĠDise": 6619,
      "CT": 6620,
      "Ġhidden": 6621,
      "appe": 6622,
      "orge": 6623,
      "Ġshru": 6624,
      "ommod": 6625,
      "Read": 6626,
      "Ġreef": 6627,
      "Ġisland": 6628,
      "ĠPlay": 6629,
      "ĠHuman": 6630,
      "Ġinfrastructure": 6631,
      "Ġpredic": 6632,
      "Ġmer": 6633,
      "fast": 6634,
      "Ġphotograp": 6635,
      "atching": 6636,
      "ĠBlue": 6637,
      "esterol": 6638,
      "efficient": 6639,
      "Ġnoticed": 6640,
      "Ġauto": 6641,
      "ora": 6642,
      "Ġgrand": 6643,
      "ĠSometimes": 6644,
      "heet": 6645,
      "Ġpolicies": 6646,
      "Ġleak": 6647,
      "ĠInternet": 6648,
      "Ġmood": 6649,
      "ĠMal": 6650,
      "Ġpun": 6651,
      "Ġprecision": 6652,
      "Ġrespectively": 6653,
      "Ġreput": 6654,
      "05": 6655,
      "irty": 6656,
      "Ġyouth": 6657,
      "face": 6658,
      "Ġlimits": 6659,
      "Ġintensity": 6660,
      "Ġlinear": 6661,
      "agnetic": 6662,
      "Ġgenerations": 6663,
      "Ġdefine": 6664,
      "alian": 6665,
      "Ġdigestive": 6666,
      "agine": 6667,
      "Ġconscious": 6668,
      "agers": 6669,
      "Ġcompact": 6670,
      "Ġderived": 6671,
      "inity": 6672,
      "Ġdive": 6673,
      "ENT": 6674,
      "Ġspectrum": 6675,
      "amily": 6676,
      "Ġfacing": 6677,
      "ella": 6678,
      "Ġclub": 6679,
      "Ġholding": 6680,
      "Ġrecommendations": 6681,
      "Ġregist": 6682,
      "Ġalgorithm": 6683,
      "gu": 6684,
      "Ġvet": 6685,
      "Ġlifes": 6686,
      "coming": 6687,
      "log": 6688,
      "mas": 6689,
      "Ġeliminate": 6690,
      "inner": 6691,
      "Ġeffectiveness": 6692,
      "Ġpink": 6693,
      "ython": 6694,
      "Ġcompl": 6695,
      "Ġsac": 6696,
      "aped": 6697,
      "Ġfertilizer": 6698,
      "Ġunf": 6699,
      "Every": 6700,
      "Ġconversation": 6701,
      "ounced": 6702,
      "FA": 6703,
      "othe": 6704,
      "ĠPress": 6705,
      "Ġspr": 6706,
      "Ġshall": 6707,
      "Ġevolved": 6708,
      "ĠAND": 6709,
      "do": 6710,
      "Ġextend": 6711,
      "ĠWestern": 6712,
      "Ġintegrated": 6713,
      "Ġclients": 6714,
      "oons": 6715,
      "Ġstroke": 6716,
      "Ġ2007": 6717,
      "Ġjack": 6718,
      "Ġantibiotics": 6719,
      "ĠAD": 6720,
      "Ġoverw": 6721,
      "pm": 6722,
      "xid": 6723,
      "CS": 6724,
      "Ġfav": 6725,
      "Ġcomplicated": 6726,
      "Ġlies": 6727,
      "Ġvibrant": 6728,
      "mitted": 6729,
      "Ġstorm": 6730,
      "earing": 6731,
      "Ġrib": 6732,
      "Lear": 6733,
      "ĠEnvironmental": 6734,
      "Ġgradually": 6735,
      "Ġscore": 6736,
      "igital": 6737,
      "Ġwonderful": 6738,
      "Ġnervous": 6739,
      "edom": 6740,
      "Ġartist": 6741,
      "ĠGroup": 6742,
      "Ġclus": 6743,
      "Ġcrow": 6744,
      "ĠPen": 6745,
      "ĠLondon": 6746,
      "Ġbabies": 6747,
      "eli": 6748,
      "Ġcontainers": 6749,
      "Ġ**": 6750,
      "eles": 6751,
      "Ġrecognized": 6752,
      "Ġcoastal": 6753,
      "Ġtables": 6754,
      "Ġprevention": 6755,
      "iology": 6756,
      "Ġcalculate": 6757,
      "During": 6758,
      "PU": 6759,
      "ĠStr": 6760,
      "Ġappreciate": 6761,
      "Comm": 6762,
      "proof": 6763,
      "ĠAmazon": 6764,
      "omfort": 6765,
      "Ġknew": 6766,
      "uel": 6767,
      "Ġcitiz": 6768,
      "Ġcorresponding": 6769,
      "Ġmature": 6770,
      "Ġhealthier": 6771,
      "BS": 6772,
      "Ġapparent": 6773,
      "Ġinspect": 6774,
      "Ġconclud": 6775,
      "ĠFree": 6776,
      "ometer": 6777,
      "Ġtraits": 6778,
      "Ġsubsequ": 6779,
      "ĠArch": 6780,
      "ources": 6781,
      "Ġfunding": 6782,
      "ĠWashington": 6783,
      "ints": 6784,
      "aj": 6785,
      "ĠAcad": 6786,
      "Ġselecting": 6787,
      "ĠWood": 6788,
      "Tra": 6789,
      "fra": 6790,
      "Ġpestic": 6791,
      "Ġgases": 6792,
      "ĠPost": 6793,
      "hent": 6794,
      "Ġongoing": 6795,
      "reatment": 6796,
      "stances": 6797,
      "terior": 6798,
      "otal": 6799,
      "Ġrect": 6800,
      "Ġversatile": 6801,
      "Where": 6802,
      "Ġaims": 6803,
      "Ġconvenient": 6804,
      "istant": 6805,
      "DF": 6806,
      "Ġathlet": 6807,
      "Ġassembly": 6808,
      "Ġrobust": 6809,
      "Che": 6810,
      "Ġgal": 6811,
      "Ġacts": 6812,
      "Ġattacks": 6813,
      "ĠTry": 6814,
      "Ġkg": 6815,
      "ocket": 6816,
      "Ġrespiratory": 6817,
      "Ġinteractive": 6818,
      "Ġabilities": 6819,
      "Ġpersist": 6820,
      "Inst": 6821,
      ",âĢĿ": 6822,
      "ĠInformation": 6823,
      "Ġtires": 6824,
      "Ġassume": 6825,
      "Ġwaiting": 6826,
      "Ġpermanent": 6827,
      "Ġcomments": 6828,
      "Ġexperiencing": 6829,
      "Ġserver": 6830,
      "uses": 6831,
      "osion": 6832,
      "Ġcompress": 6833,
      "Ġdescribes": 6834,
      "eping": 6835,
      "Ġresolution": 6836,
      "reating": 6837,
      "Ġconsumer": 6838,
      "Ġmos": 6839,
      "Ġarms": 6840,
      "Ġvariations": 6841,
      "Ġburning": 6842,
      "Ġblend": 6843,
      "IR": 6844,
      "Ġlogic": 6845,
      "ĠJournal": 6846,
      "Ġweap": 6847,
      "Ġincome": 6848,
      "bohyd": 6849,
      "Ġaccommod": 6850,
      "Ġjoints": 6851,
      "net": 6852,
      "Ġkilled": 6853,
      "Ġsuscept": 6854,
      "Ġdrops": 6855,
      "ĠHaw": 6856,
      "Ġfather": 6857,
      "amic": 6858,
      "ĠDel": 6859,
      "Ġsexual": 6860,
      "Ġmarks": 6861,
      "ĠPract": 6862,
      "Ġdied": 6863,
      "Ġprofile": 6864,
      "Ġgeomet": 6865,
      "Ġbeef": 6866,
      "ĠFind": 6867,
      "ĠAT": 6868,
      "Ġpreferred": 6869,
      "field": 6870,
      "95": 6871,
      "Ġpresentation": 6872,
      "ĠOnly": 6873,
      "Ġvariables": 6874,
      "Ġdealing": 6875,
      "Ġcolumn": 6876,
      "Ġsch": 6877,
      "Ġdifficulty": 6878,
      "Ġsatell": 6879,
      "itness": 6880,
      "Ġparticipate": 6881,
      "Ġcham": 6882,
      "Ġrobots": 6883,
      "Ġbreaking": 6884,
      "ĠTem": 6885,
      "Ġcircle": 6886,
      "Ġconvert": 6887,
      "Ġgenome": 6888,
      "Ġshorter": 6889,
      "Ġmammals": 6890,
      "certain": 6891,
      "Ġ?": 6892,
      "izers": 6893,
      "OW": 6894,
      "Ġgrid": 6895,
      "ĠEqu": 6896,
      "ĠVe": 6897,
      "Ġfant": 6898,
      "pat": 6899,
      "31": 6900,
      "Ġduration": 6901,
      "Ġvariation": 6902,
      "ĠLaw": 6903,
      "Ġterrit": 6904,
      "Ġheads": 6905,
      "Share": 6906,
      "Ġbugs": 6907,
      "Ġnarrow": 6908,
      "usiness": 6909,
      "ĠUV": 6910,
      "Ġbiodiversity": 6911,
      "Ġcotton": 6912,
      "Ġmanaged": 6913,
      "Ġintense": 6914,
      "Ġdemonstrate": 6915,
      "Ġnuts": 6916,
      "Ġpit": 6917,
      "Ġmovie": 6918,
      "Ġappoint": 6919,
      "scale": 6920,
      "rab": 6921,
      "Ġspeaking": 6922,
      "ĠPal": 6923,
      "Does": 6924,
      "Ġcompat": 6925,
      "Ġdurable": 6926,
      "ĠHouse": 6927,
      "AA": 6928,
      "gien": 6929,
      "green": 6930,
      "Ġsections": 6931,
      "rape": 6932,
      "ĠMedical": 6933,
      "Ġsuffering": 6934,
      "ĠCentral": 6935,
      "erior": 6936,
      "Ġhypothes": 6937,
      "ini": 6938,
      "Ġfederal": 6939,
      "ĠForm": 6940,
      "lessly": 6941,
      "Ġsteam": 6942,
      "Ġtele": 6943,
      "Ġbottle": 6944,
      "Ġson": 6945,
      "Ġnearby": 6946,
      "Ġimmediate": 6947,
      "Ġsou": 6948,
      "Ġcaught": 6949,
      "ĠSil": 6950,
      "Ġhop": 6951,
      "Ġinvent": 6952,
      "Ġcrystal": 6953,
      "cou": 6954,
      "Ġgrain": 6955,
      "!\"": 6956,
      "heets": 6957,
      "Ġpartner": 6958,
      "Ġadequate": 6959,
      "ĠFace": 6960,
      "ikes": 6961,
      "Ġentry": 6962,
      "Ġsupposed": 6963,
      "Ġpairs": 6964,
      "%.": 6965,
      "Ġleader": 6966,
      "Ġaccomp": 6967,
      "Ġtraum": 6968,
      "Ġfocuses": 6969,
      "ĠMoreover": 6970,
      "Col": 6971,
      "ourse": 6972,
      "oto": 6973,
      "step": 6974,
      "ĠAustralian": 6975,
      "Ġpackaging": 6976,
      "ĠOh": 6977,
      "Ġformal": 6978,
      "Also": 6979,
      "Ġtough": 6980,
      "Ġvulnerable": 6981,
      "ocation": 6982,
      "aterials": 6983,
      "ĠBest": 6984,
      "46": 6985,
      "unt": 6986,
      "ĠMat": 6987,
      "Ġfrozen": 6988,
      "Ġtoys": 6989,
      "ĠFigure": 6990,
      "Ġcontem": 6991,
      "Ġbrands": 6992,
      "ductor": 6993,
      "CC": 6994,
      "ĠRad": 6995,
      "Ġfocusing": 6996,
      "Ġsyndrome": 6997,
      "Ġdoors": 6998,
      "Ġ75": 6999,
      "Ġpotatoes": 7000,
      "ona": 7001,
      "PR": 7002,
      "Ġfibers": 7003,
      "Ġframework": 7004,
      "Ġdetermining": 7005,
      "Ġimplementation": 7006,
      "reens": 7007,
      "dr": 7008,
      "van": 7009,
      "Ġchest": 7010,
      "ĠAR": 7011,
      "Ġsodium": 7012,
      "Ġclay": 7013,
      "cycl": 7014,
      "Ġthickness": 7015,
      "Ġgentle": 7016,
      "mentation": 7017,
      "Ġseat": 7018,
      "Ġoils": 7019,
      "advant": 7020,
      "ĠNAS": 7021,
      "Ġrubber": 7022,
      "Ġdirector": 7023,
      "mor": 7024,
      "ading": 7025,
      "lectric": 7026,
      "Ġdecline": 7027,
      "Ġclaims": 7028,
      "Ġstated": 7029,
      "Ġcultures": 7030,
      "ĠUnderstanding": 7031,
      "ĠProfessor": 7032,
      "Ġcurriculum": 7033,
      "ĠSam": 7034,
      "Ġourselves": 7035,
      "Ġstrip": 7036,
      "Ġshock": 7037,
      "Ġintest": 7038,
      "efits": 7039,
      "mal": 7040,
      "Ġherbs": 7041,
      "Ġpel": 7042,
      "Ġcapital": 7043,
      "ĠWindows": 7044,
      "Ġviews": 7045,
      "Ġprotecting": 7046,
      "ĠShould": 7047,
      "OM": 7048,
      "ĠSuch": 7049,
      "Ġprocessed": 7050,
      "Ġobserve": 7051,
      "ceans": 7052,
      "Ġexistence": 7053,
      "Ġdrivers": 7054,
      "ĠPublic": 7055,
      "Ġcalm": 7056,
      "Ġfunctionality": 7057,
      "Ġshowc": 7058,
      "Ġrepeated": 7059,
      "icit": 7060,
      "zymes": 7061,
      "ĠRNA": 7062,
      "ĠAtt": 7063,
      "uning": 7064,
      "Ġthoroughly": 7065,
      "RNA": 7066,
      "utch": 7067,
      "ĠZe": 7068,
      "Ġsilver": 7069,
      "Ġflash": 7070,
      "amil": 7071,
      "Ġwatering": 7072,
      "Car": 7073,
      "Ġdiscomfort": 7074,
      "Ġaffordable": 7075,
      "Ġtack": 7076,
      "ushing": 7077,
      "atively": 7078,
      "Ġevaluate": 7079,
      "berg": 7080,
      "Ġforming": 7081,
      "Ġdefect": 7082,
      "Ġoptical": 7083,
      "Ġsynthetic": 7084,
      "iro": 7085,
      "Ġclient": 7086,
      "OD": 7087,
      "Ġlandscap": 7088,
      "Ġow": 7089,
      "ĠMot": 7090,
      "anish": 7091,
      "Ġexamine": 7092,
      "aneously": 7093,
      "Ġlargely": 7094,
      "Ġhybrid": 7095,
      "Ġstems": 7096,
      "Ġreceiving": 7097,
      "ĠPhil": 7098,
      "Ġgerm": 7099,
      "state": 7100,
      "¿½": 7101,
      "Ġoccurred": 7102,
      "Ġproven": 7103,
      "Ġfing": 7104,
      "Ġcholesterol": 7105,
      "apping": 7106,
      "ï¿½": 7107,
      "Ġ2022": 7108,
      "nger": 7109,
      "luding": 7110,
      "heric": 7111,
      "Ġrod": 7112,
      "Ġcategory": 7113,
      "Ġcater": 7114,
      "Ġinstrum": 7115,
      "Ġpossibilities": 7116,
      "wo": 7117,
      "rument": 7118,
      "Ġtons": 7119,
      "Ġneighb": 7120,
      "Ġsan": 7121,
      "Ġaward": 7122,
      "Ġ32": 7123,
      "Ġexists": 7124,
      "Ġpeak": 7125,
      "Ġquantity": 7126,
      "utive": 7127,
      "ulture": 7128,
      "mented": 7129,
      "Ġtheme": 7130,
      "Ġadvoc": 7131,
      "Ġunknown": 7132,
      "bage": 7133,
      ".'": 7134,
      "Ġevaluation": 7135,
      "ĠAdv": 7136,
      "Ġidentifying": 7137,
      "Ġbiom": 7138,
      "tery": 7139,
      "Ġgreatest": 7140,
      "Ġidentity": 7141,
      "Ġliterature": 7142,
      "ĠNews": 7143,
      "Ġdietary": 7144,
      "Ġrevealed": 7145,
      "ivest": 7146,
      "ya": 7147,
      "Ġintroduce": 7148,
      "ĠSecond": 7149,
      "Ġcolleagues": 7150,
      "zyme": 7151,
      "Because": 7152,
      "Ġlip": 7153,
      "Ġreaders": 7154,
      "such": 7155,
      "Ġvector": 7156,
      "ĠRegular": 7157,
      "AG": 7158,
      "rosion": 7159,
      "Ġbringing": 7160,
      "Ġcrack": 7161,
      "althy": 7162,
      "Ġveterinarian": 7163,
      "Ġdense": 7164,
      "Ġcomputing": 7165,
      "Ġdurability": 7166,
      "Ġpilot": 7167,
      "ĠFrance": 7168,
      "ĠBig": 7169,
      "Ġdisrupt": 7170,
      "Ġcandid": 7171,
      "Ġstreet": 7172,
      "ĠSocial": 7173,
      "Ġtells": 7174,
      "rem": 7175,
      "Ġphilos": 7176,
      "Ġaffecting": 7177,
      "Ġprove": 7178,
      "UT": 7179,
      "night": 7180,
      "Ġboxes": 7181,
      "ĠClimate": 7182,
      "Ġfract": 7183,
      "Ġengagement": 7184,
      "Ġmoon": 7185,
      "Ġperce": 7186,
      "Ġaggressive": 7187,
      "Ġmitig": 7188,
      "Ġmouse": 7189,
      "Ġlistening": 7190,
      "Ġlaunch": 7191,
      "Ġgoods": 7192,
      "âĪĴ": 7193,
      "ML": 7194,
      "Ġtheore": 7195,
      "Ġnor": 7196,
      "Ġconsideration": 7197,
      "Just": 7198,
      "orrect": 7199,
      "Ġinfest": 7200,
      "ĠThose": 7201,
      "hav": 7202,
      "Ġcomprom": 7203,
      "ĠGermany": 7204,
      "Ġpersonality": 7205,
      "Ġfilters": 7206,
      "Ġcred": 7207,
      "Ġmere": 7208,
      "adian": 7209,
      "Ġnavigate": 7210,
      "trans": 7211,
      "ĠFinally": 7212,
      "inch": 7213,
      "pled": 7214,
      "ĠPot": 7215,
      "ooked": 7216,
      "pie": 7217,
      "ĠCell": 7218,
      "astics": 7219,
      "Ġbought": 7220,
      "Ġessentially": 7221,
      "Ġlifespan": 7222,
      "SP": 7223,
      "Ġavailability": 7224,
      "ican": 7225,
      "Ġsupplements": 7226,
      "ritis": 7227,
      "Ġ196": 7228,
      "riction": 7229,
      "Ġeleph": 7230,
      "ymph": 7231,
      "ago": 7232,
      "Ġanalog": 7233,
      "Ġkm": 7234,
      "Ġestimate": 7235,
      "exp": 7236,
      "gical": 7237,
      "Ġdoctors": 7238,
      "ĠFalse": 7239,
      "ĠProcess": 7240,
      "inent": 7241,
      "Ġcrew": 7242,
      "grade": 7243,
      "Ġjoy": 7244,
      "Ġ`": 7245,
      "hered": 7246,
      "omin": 7247,
      "Ġcategories": 7248,
      "Ġrestaurant": 7249,
      "Ġobesity": 7250,
      "Ġdeer": 7251,
      "Ġjuice": 7252,
      "Ġagent": 7253,
      "Ġshouldn": 7254,
      "Ġpharm": 7255,
      "Ġwast": 7256,
      "Ġunusual": 7257,
      "pers": 7258,
      "ĠPers": 7259,
      "Ġmirror": 7260,
      "Ġmodule": 7261,
      "ĠMedicine": 7262,
      "Ġpipes": 7263,
      "quit": 7264,
      "Ġdecay": 7265,
      "Ġglucose": 7266,
      "ĠPan": 7267,
      "Ġempty": 7268,
      "Ġeco": 7269,
      "Ġholid": 7270,
      "Ġdissol": 7271,
      "anger": 7272,
      "Which": 7273,
      "Ġcompetitive": 7274,
      "ĠÃ": 7275,
      "Sim": 7276,
      "ĠIll": 7277,
      "Ġsched": 7278,
      "Ġprotocol": 7279,
      "Ġproof": 7280,
      "oids": 7281,
      "ĠSuper": 7282,
      "Ġunderstood": 7283,
      "Ġinitially": 7284,
      "Ġroles": 7285,
      "Ġmatrix": 7286,
      "ĠEss": 7287,
      "Even": 7288,
      "Ġinterests": 7289,
      "Ġuniform": 7290,
      "ĠUSA": 7291,
      "Ġabsolutely": 7292,
      "ivestock": 7293,
      "Ġusual": 7294,
      "Ġkidney": 7295,
      "Ġcircumstances": 7296,
      "osc": 7297,
      "Ġbreaks": 7298,
      "ogether": 7299,
      "Ġequipped": 7300,
      "Ġdried": 7301,
      "Ġlux": 7302,
      "Ġsnake": 7303,
      "ioxid": 7304,
      "Ġexplanation": 7305,
      "Ġcub": 7306,
      "âĢľ": 7307,
      "Ġleadership": 7308,
      "Ġprinter": 7309,
      "Ġinvolving": 7310,
      "Ġbrows": 7311,
      "working": 7312,
      "Ġanalyze": 7313,
      "ĠUN": 7314,
      "Ġpropag": 7315,
      "02": 7316,
      "Ġsoci": 7317,
      "Ġgap": 7318,
      "Ġdispl": 7319,
      "Ġcovering": 7320,
      "Ġfisher": 7321,
      "rage": 7322,
      "Ġregardless": 7323,
      "Ġresidents": 7324,
      "ĠAtlantic": 7325,
      "Ġpriorit": 7326,
      "shaped": 7327,
      "Ġaccurately": 7328,
      "Ġhazard": 7329,
      "ĠMor": 7330,
      "Ġtension": 7331,
      "Ġsulf": 7332,
      "Ġcomposed": 7333,
      "udd": 7334,
      "Ġcomplexity": 7335,
      "Ġgarlic": 7336,
      "lt": 7337,
      "Ġreprodu": 7338,
      "Ġneur": 7339,
      "ĠRight": 7340,
      "ptic": 7341,
      "ĠPlace": 7342,
      "Ġdocuments": 7343,
      "Ġdimensions": 7344,
      "Ġgiant": 7345,
      "Ġfeather": 7346,
      "Ġbrake": 7347,
      "About": 7348,
      "etime": 7349,
      "Ġcharacterized": 7350,
      "izza": 7351,
      "Ġtreating": 7352,
      "OC": 7353,
      "Ġtoile": 7354,
      "Ġprofit": 7355,
      "ĠCoun": 7356,
      "Ġevolutionary": 7357,
      "Ġincorporating": 7358,
      "Ġexpansion": 7359,
      "49": 7360,
      "Ġprovider": 7361,
      "ĠPet": 7362,
      "Of": 7363,
      "UR": 7364,
      "Ġbeet": 7365,
      "iger": 7366,
      "Ġrecover": 7367,
      "Ġinvention": 7368,
      "42": 7369,
      "ĠProv": 7370,
      "forcement": 7371,
      "rays": 7372,
      "Ġreaching": 7373,
      "Ġunable": 7374,
      "Ġhimself": 7375,
      "ĠPhotos": 7376,
      "Ġmixing": 7377,
      "ĠMa": 7378,
      "Ġchannels": 7379,
      "Go": 7380,
      "Ġarchitecture": 7381,
      "Ġrecording": 7382,
      "Ġrelief": 7383,
      "auc": 7384,
      "Ġid": 7385,
      "Ġsaving": 7386,
      "ĠMass": 7387,
      "Ġdemonstrated": 7388,
      "Ġcarrying": 7389,
      "made": 7390,
      "Ġsoph": 7391,
      "Ġexploration": 7392,
      "Ġenhancing": 7393,
      "Ġ150": 7394,
      "Ġ400": 7395,
      "Ġwax": 7396,
      "Ġcharged": 7397,
      "ĠDC": 7398,
      "Ġstead": 7399,
      "Ġhormone": 7400,
      "ww": 7401,
      "Ġblank": 7402,
      "ĠConf": 7403,
      "ĠAgricult": 7404,
      "Ġven": 7405,
      "ĠMach": 7406,
      "elry": 7407,
      "Ġexclus": 7408,
      "ĠDogs": 7409,
      "mble": 7410,
      "Ġstimul": 7411,
      "Ġneural": 7412,
      "Ġreb": 7413,
      "action": 7414,
      "forest": 7415,
      "while": 7416,
      "Ġdoubt": 7417,
      "Ġgift": 7418,
      "ĠMo": 7419,
      "Ġdomain": 7420,
      "Ġdies": 7421,
      "Ġsle": 7422,
      "Water": 7423,
      "Ġglasses": 7424,
      "Pr": 7425,
      "ctu": 7426,
      "ĠApple": 7427,
      "flies": 7428,
      "pection": 7429,
      "Ġgently": 7430,
      "ael": 7431,
      "ingly": 7432,
      "ĠQuestions": 7433,
      "Ġpregnant": 7434,
      "Ġexcited": 7435,
      "lder": 7436,
      "Ġattractive": 7437,
      "etal": 7438,
      "CE": 7439,
      "text": 7440,
      "Ġmask": 7441,
      "Ġerrors": 7442,
      "itage": 7443,
      "Ġgate": 7444,
      "Ġmessages": 7445,
      "Red": 7446,
      "oust": 7447,
      "Ġcurve": 7448,
      "Ġappeal": 7449,
      "ĠFollow": 7450,
      "Ġdiamond": 7451,
      "Understanding": 7452,
      "Have": 7453,
      "Ġtruck": 7454,
      "Ġlift": 7455,
      "Ġions": 7456,
      "ude": 7457,
      "Ġstraw": 7458,
      "Ġvill": 7459,
      "Well": 7460,
      "Ġdiscipl": 7461,
      "Co": 7462,
      "Ġpy": 7463,
      "lock": 7464,
      "Ġrough": 7465,
      "Ġspeeds": 7466,
      "ĠEnd": 7467,
      "Ġpill": 7468,
      "ili": 7469,
      "Ġspark": 7470,
      "anguages": 7471,
      "Ġradi": 7472,
      "roductive": 7473,
      "Ġincorporate": 7474,
      "Ġagents": 7475,
      "Ġoutdoors": 7476,
      "ĠMult": 7477,
      "Ġvan": 7478,
      "Ġprobability": 7479,
      "Ġplates": 7480,
      "Ġforeign": 7481,
      "Ġtal": 7482,
      "ĠType": 7483,
      "Ġfacility": 7484,
      "Ġidentification": 7485,
      "overnment": 7486,
      "Ġencounter": 7487,
      "Ġingredient": 7488,
      "Ġdough": 7489,
      "cue": 7490,
      "Ġsensitivity": 7491,
      "lo": 7492,
      "Ġdirections": 7493,
      "Ġselling": 7494,
      "Ġdrainage": 7495,
      "Ġ2005": 7496,
      "Ġbuck": 7497,
      "Ġpackage": 7498,
      "ĠTO": 7499,
      "Ġcalculated": 7500,
      "Ġorient": 7501,
      "Ġintegr": 7502,
      "Ġalk": 7503,
      "ĠProper": 7504,
      "Ġexpressed": 7505,
      "Ġpip": 7506,
      "Ġbonds": 7507,
      "ĠAvoid": 7508,
      "Ġranging": 7509,
      "Ġobservations": 7510,
      "Ġperforming": 7511,
      "Ġcrust": 7512,
      "Ġyounger": 7513,
      "utrition": 7514,
      "Ġsole": 7515,
      "Ġmini": 7516,
      "ĠSimilar": 7517,
      "oving": 7518,
      "Ġsimult": 7519,
      "Ġtrad": 7520,
      "IF": 7521,
      "Ġbits": 7522,
      "Ġcement": 7523,
      "May": 7524,
      "Ġfalse": 7525,
      "Ġecological": 7526,
      "Ġroute": 7527,
      "ĠThanks": 7528,
      "Ġallergies": 7529,
      "cm": 7530,
      "Ġdanger": 7531,
      "Ġvisitors": 7532,
      "Ġsplit": 7533,
      "ĠWildlife": 7534,
      "otype": 7535,
      "Ġ2006": 7536,
      "Ġvaries": 7537,
      "ĠBur": 7538,
      "Ġanimation": 7539,
      "Ġsalmon": 7540,
      "this": 7541,
      "Ġembry": 7542,
      "ĠChange": 7543,
      "Ġthrow": 7544,
      "Ġfalls": 7545,
      "ĠNASA": 7546,
      "Ġtag": 7547,
      "rian": 7548,
      "Ġoutcome": 7549,
      "plete": 7550,
      "sis": 7551,
      "ĠTrue": 7552,
      "Ġspending": 7553,
      "EE": 7554,
      "Ġauthent": 7555,
      "Ġdetected": 7556,
      "ults": 7557,
      "Ġriding": 7558,
      "SS": 7559,
      "aurs": 7560,
      "Ġwheels": 7561,
      "Ġcellular": 7562,
      "Ġcow": 7563,
      "Ġgrains": 7564,
      "Ġphenomenon": 7565,
      "Ġdriven": 7566,
      "ked": 7567,
      "Ġsomewhat": 7568,
      "Ġsubs": 7569,
      "Ġsail": 7570,
      "Ġcoverage": 7571,
      "Ġrivers": 7572,
      "elly": 7573,
      "Ġthreats": 7574,
      "Ġlaun": 7575,
      "oted": 7576,
      "ĠConservation": 7577,
      "Sm": 7578,
      "Ġdelicate": 7579,
      "Make": 7580,
      "Ġneighbor": 7581,
      "ideo": 7582,
      "Ġconfident": 7583,
      "Ġwires": 7584,
      "assium": 7585,
      "Ġcarbohyd": 7586,
      "onia": 7587,
      "Ġreviews": 7588,
      "ĠBack": 7589,
      "Ġendangered": 7590,
      "thal": 7591,
      "Ġtomatoes": 7592,
      "omas": 7593,
      "adder": 7594,
      "Ġsoils": 7595,
      "ĠCouncil": 7596,
      "LC": 7597,
      "Ġwing": 7598,
      "Ġexhibit": 7599,
      "alls": 7600,
      "Ġmine": 7601,
      "Ġcoral": 7602,
      "Ġincredible": 7603,
      "velength": 7604,
      "Ġfunctioning": 7605,
      "Ġprevents": 7606,
      "ĠMem": 7607,
      "pread": 7608,
      "Ġdrawn": 7609,
      "Ġrising": 7610,
      "ounce": 7611,
      "Ġwestern": 7612,
      "ĠGener": 7613,
      "Ġcombine": 7614,
      "Ġdesire": 7615,
      "Ġregional": 7616,
      "Ġcontributing": 7617,
      "ĠCur": 7618,
      "Ġmuse": 7619,
      "Ġprone": 7620,
      "Ġmodified": 7621,
      "Ġdistributed": 7622,
      "Ġsmoking": 7623,
      "Ġdisappe": 7624,
      "ĠDavid": 7625,
      "Gen": 7626,
      "ĠâĢĺ": 7627,
      "cknow": 7628,
      "ville": 7629,
      "Â®": 7630,
      "Ġimmun": 7631,
      "Ġpreval": 7632,
      "Ġdesk": 7633,
      "obe": 7634,
      "berries": 7635,
      "Ġbeach": 7636,
      "Ġvegan": 7637,
      "Ġconversion": 7638,
      "Ġculinary": 7639,
      "lig": 7640,
      "Ġpond": 7641,
      "Ġbarrier": 7642,
      "Ġprinted": 7643,
      "Ġbol": 7644,
      "rying": 7645,
      "Ġuniversity": 7646,
      "ogenic": 7647,
      "ĠMil": 7648,
      "Ġloud": 7649,
      "Ġinstrument": 7650,
      "pes": 7651,
      "ĠNote": 7652,
      "uty": 7653,
      "Ġore": 7654,
      "etch": 7655,
      "Ġblade": 7656,
      "Ġrepresented": 7657,
      "Ġrarely": 7658,
      "Ġalternatives": 7659,
      "Ġimplications": 7660,
      "isl": 7661,
      "Ġbulbs": 7662,
      "Ġbub": 7663,
      "ĠBook": 7664,
      "Ġguard": 7665,
      "Ġrear": 7666,
      "everal": 7667,
      "Ġcombat": 7668,
      "Ġpassing": 7669,
      "ports": 7670,
      "Ġfreedom": 7671,
      "Ġera": 7672,
      "arming": 7673,
      "],": 7674,
      "icular": 7675,
      "LA": 7676,
      "Ġscientist": 7677,
      "ĠTop": 7678,
      "rium": 7679,
      "ruit": 7680,
      "Ġovercome": 7681,
      "Ġconvey": 7682,
      "bot": 7683,
      "Ġchips": 7684,
      "list": 7685,
      "power": 7686,
      "isk": 7687,
      "Ġquiet": 7688,
      "Ġenerg": 7689,
      "Ġimplemented": 7690,
      "Ġlosing": 7691,
      "Ġgained": 7692,
      "43": 7693,
      "Ġreaches": 7694,
      "Ġfrust": 7695,
      "ĠHol": 7696,
      "Ġgrad": 7697,
      "Ġorganism": 7698,
      "sters": 7699,
      "Ġintervention": 7700,
      "Ġtrial": 7701,
      "Ġdecade": 7702,
      "bow": 7703,
      "ĠHyd": 7704,
      "Ġapps": 7705,
      "rane": 7706,
      "ĠJe": 7707,
      "Ġcenturies": 7708,
      "gent": 7709,
      "Ġwiring": 7710,
      "aft": 7711,
      "othing": 7712,
      "Ġtreats": 7713,
      "Ġhygien": 7714,
      "Ġalgae": 7715,
      "sor": 7716,
      "Ġworn": 7717,
      "ĠVir": 7718,
      "asm": 7719,
      "Ġwarning": 7720,
      "Ġvolcan": 7721,
      "Per": 7722,
      "Ġengineers": 7723,
      "Ġrust": 7724,
      "esium": 7725,
      "idespread": 7726,
      "Ġsomewhere": 7727,
      "Ġposts": 7728,
      "Ġpopularity": 7729,
      "ĠGeneral": 7730,
      "Ġepis": 7731,
      "Ġchildhood": 7732,
      "ega": 7733,
      "eting": 7734,
      "anol": 7735,
      "thritis": 7736,
      "tles": 7737,
      "Ġcompens": 7738,
      "heat": 7739,
      "ĠPM": 7740,
      "Ġorganized": 7741,
      "Ġtender": 7742,
      "Ġinver": 7743,
      "def": 7744,
      "ĠDire": 7745,
      "()": 7746,
      "Ġpreserve": 7747,
      "Ġcontrolling": 7748,
      "erts": 7749,
      "Ġca": 7750,
      "ĠCH": 7751,
      "through": 7752,
      "ĠFish": 7753,
      "Ġethical": 7754,
      "Ġamino": 7755,
      "85": 7756,
      "Ġdrought": 7757,
      "Ġdiffer": 7758,
      "Fig": 7759,
      "Ġopened": 7760,
      "Ġtiming": 7761,
      "ĠSafety": 7762,
      "Ġcharacteristic": 7763,
      "Ġexperimental": 7764,
      "ĠNor": 7765,
      "Ġremarkable": 7766,
      "agen": 7767,
      "Ġdow": 7768,
      "ref": 7769,
      "Ġcabin": 7770,
      "plate": 7771,
      "ĠIndust": 7772,
      "Art": 7773,
      "Ġboundaries": 7774,
      "ĠConst": 7775,
      "Ġwider": 7776,
      "taining": 7777,
      "born": 7778,
      "Ġintricate": 7779,
      "herent": 7780,
      "ĠBal": 7781,
      "Ġoriginally": 7782,
      "Ġsurge": 7783,
      "Ġindeed": 7784,
      "Ġmyth": 7785,
      "Ġobjective": 7786,
      "ĠHy": 7787,
      "sized": 7788,
      "Ġsale": 7789,
      "ĠSym": 7790,
      "Ġdil": 7791,
      "Ġtracking": 7792,
      "Ġcomplement": 7793,
      "Ġinsight": 7794,
      "Ġbranch": 7795,
      "Ġfilling": 7796,
      "ĠCy": 7797,
      "ĠKey": 7798,
      "Ġtone": 7799,
      "Ġoverwhel": 7800,
      "ĠChoose": 7801,
      "ĠAp": 7802,
      "type": 7803,
      "Ġpreparing": 7804,
      "Ġembod": 7805,
      "Ġvarying": 7806,
      "Ġfats": 7807,
      "itudes": 7808,
      "Am": 7809,
      "Ġoxide": 7810,
      "amination": 7811,
      "ocr": 7812,
      "Ġvegetation": 7813,
      "Ġfatty": 7814,
      "icul": 7815,
      "Ġenzymes": 7816,
      "Ġletters": 7817,
      "Ġduct": 7818,
      "ĠMag": 7819,
      "Ġdepartment": 7820,
      "Ġterminal": 7821,
      "urp": 7822,
      "Ġrelation": 7823,
      "Any": 7824,
      "CD": 7825,
      "ĠWord": 7826,
      "Ġpositions": 7827,
      "Ġnone": 7828,
      "Ġantioxid": 7829,
      "Ġincredibly": 7830,
      "oli": 7831,
      "Ġchip": 7832,
      "Ġcorpor": 7833,
      "Ġprescrib": 7834,
      "Ġworkshop": 7835,
      "Ġcattle": 7836,
      "Ġmul": 7837,
      "Ġintegration": 7838,
      "Wor": 7839,
      "rous": 7840,
      "Ġdependent": 7841,
      "MP": 7842,
      "itamin": 7843,
      "asant": 7844,
      "Ġinsulin": 7845,
      "Ġgum": 7846,
      "Ġbeds": 7847,
      "igue": 7848,
      "04": 7849,
      "Ġretail": 7850,
      "ĠTool": 7851,
      "Ġaddressing": 7852,
      "ĠDifferent": 7853,
      "roat": 7854,
      "03": 7855,
      "ĠCarol": 7856,
      "ĠSciences": 7857,
      "Ġguy": 7858,
      "ĠMiss": 7859,
      "Com": 7860,
      "Ġking": 7861,
      "aren": 7862,
      "asma": 7863,
      "aters": 7864,
      "Ġoceans": 7865,
      "Ġtotally": 7866,
      "Ġtargets": 7867,
      "Ġenhanced": 7868,
      "08": 7869,
      "olph": 7870,
      "Ġadventure": 7871,
      "ĠPlants": 7872,
      "oa": 7873,
      "Ġcomplications": 7874,
      "Ġwine": 7875,
      "ĠList": 7876,
      "Expl": 7877,
      "Ġ31": 7878,
      "Ġrotation": 7879,
      "Ġlimitations": 7880,
      "Ġfootball": 7881,
      "Ġdecreased": 7882,
      "ibration": 7883,
      "asters": 7884,
      "Ġunex": 7885,
      "Ġcycles": 7886,
      "Ġcorrel": 7887,
      "Ġwebsites": 7888,
      "Ġmush": 7889,
      "Ġachieving": 7890,
      "ĠTable": 7891,
      "Ġenabling": 7892,
      "Ġfuels": 7893,
      "Ġinspired": 7894,
      "Ġhorizontal": 7895,
      "Ġleather": 7896,
      "Ġcake": 7897,
      "inate": 7898,
      "Ġbare": 7899,
      "Ġstabil": 7900,
      "Ġcataly": 7901,
      "ĠSing": 7902,
      "ĠFin": 7903,
      "rapeut": 7904,
      "Ġmarked": 7905,
      "Aut": 7906,
      "Ġgray": 7907,
      "Ġgrams": 7908,
      "Ġescape": 7909,
      "ĠEngineering": 7910,
      "ĠCD": 7911,
      "war": 7912,
      "Ġwidespread": 7913,
      "Ġfalling": 7914,
      "Ġsuperior": 7915,
      "estone": 7916,
      "edge": 7917,
      "Ġpaying": 7918,
      "Ġelectronics": 7919,
      "awn": 7920,
      "ĠMiddle": 7921,
      "Ġpresents": 7922,
      "owered": 7923,
      "Ġchecking": 7924,
      "Ġlighter": 7925,
      "ĠLabor": 7926,
      "reated": 7927,
      "ĠMill": 7928,
      "Ġhal": 7929,
      "ĠID": 7930,
      "Ġguys": 7931,
      "Ġlivestock": 7932,
      "Ġpersonalized": 7933,
      "rey": 7934,
      "Ġlapt": 7935,
      "Ġscript": 7936,
      "07": 7937,
      "enger": 7938,
      "iking": 7939,
      "sey": 7940,
      "Ġremind": 7941,
      "ĠArctic": 7942,
      "Ġadj": 7943,
      "Ġsheets": 7944,
      "encing": 7945,
      "cture": 7946,
      "ĠMr": 7947,
      "range": 7948,
      "Ġsurprising": 7949,
      "Ġille": 7950,
      "Ġchair": 7951,
      "Ġgirls": 7952,
      "utter": 7953,
      "Ġtransplant": 7954,
      "Ġlanguages": 7955,
      "Ġmanif": 7956,
      "06": 7957,
      "Ġknife": 7958,
      "lete": 7959,
      "owners": 7960,
      "Ġgast": 7961,
      "Ġtract": 7962,
      "Spe": 7963,
      "effective": 7964,
      "Ġadvis": 7965,
      "Ġpandemic": 7966,
      "Ġreverse": 7967,
      "Ġfarms": 7968,
      "riting": 7969,
      "Ġcircular": 7970,
      "Ġconsumed": 7971,
      "Like": 7972,
      "riday": 7973,
      "Ġupdated": 7974,
      "rons": 7975,
      "Ġbelt": 7976,
      "Ġlitter": 7977,
      "Ġdollars": 7978,
      "amine": 7979,
      "Ġstretch": 7980,
      "ria": 7981,
      "Ġdegrad": 7982,
      "Ġwhenever": 7983,
      "ĠCommun": 7984,
      "Ġfootprint": 7985,
      "Ġanten": 7986,
      "Ġsleeping": 7987,
      "Ġstrict": 7988,
      "ĠServices": 7989,
      "ĠRich": 7990,
      "duction": 7991,
      "Ġdys": 7992,
      "ĠMaybe": 7993,
      "Ġreligious": 7994,
      "Ġmeth": 7995,
      "ĠDown": 7996,
      "Ġbears": 7997,
      "ĠSn": 7998,
      "Ġroads": 7999,
      "engers": 8000,
      "eness": 8001,
      "ĠMary": 8002,
      "ĠMax": 8003,
      "Ġbusy": 8004,
      "ĠLow": 8005,
      "Ġstuck": 8006,
      "Ġperm": 8007,
      "Ġclassified": 8008,
      "Ġconstit": 8009,
      "erenn": 8010,
      "ĠAnim": 8011,
      "Ġlarv": 8012,
      "Ġabsorption": 8013,
      "zil": 8014,
      "icians": 8015,
      "Ġdesigning": 8016,
      "RA": 8017,
      "ittle": 8018,
      "Ġaxis": 8019,
      "Ġwheat": 8020,
      "rots": 8021,
      "Ġkin": 8022,
      "afe": 8023,
      "Ġhouses": 8024,
      "Ġphr": 8025,
      "86": 8026,
      "Ġ2023": 8027,
      "bar": 8028,
      "onna": 8029,
      "ĠAL": 8030,
      "Ġheavily": 8031,
      "Ġimaging": 8032,
      "ĠBu": 8033,
      "chnology": 8034,
      "Ġcirculation": 8035,
      "izz": 8036,
      "imer": 8037,
      "Ġstones": 8038,
      "Ġfif": 8039,
      "fill": 8040,
      "Ġdefault": 8041,
      "Ġroughly": 8042,
      "ĠAud": 8043,
      "Ġimper": 8044,
      "Ġcenters": 8045,
      "ĠThough": 8046,
      "Ġcuts": 8047,
      "Ġenzyme": 8048,
      "Ġshoulder": 8049,
      "Ġships": 8050,
      "tail": 8051,
      "Ġdose": 8052,
      "Ġpus": 8053,
      "Ġbasics": 8054,
      "anned": 8055,
      "ĠLeg": 8056,
      "Ġcash": 8057,
      "Ġpose": 8058,
      "Ġoccurring": 8059,
      "Ġfever": 8060,
      "words": 8061,
      "leg": 8062,
      "ĠReview": 8063,
      "Ġregulation": 8064,
      "Ġsusceptible": 8065,
      "Ġstunning": 8066,
      "Ġhonest": 8067,
      "Ġcleaner": 8068,
      "oured": 8069,
      "Ġgenerator": 8070,
      "Ġentering": 8071,
      "Ġsubstrate": 8072,
      "ĠSpecial": 8073,
      "Ġspecified": 8074,
      "ĠAnimal": 8075,
      "Ġsatisfact": 8076,
      "apse": 8077,
      "Ġlungs": 8078,
      "tee": 8079,
      "ĠGlobal": 8080,
      "Ġupdate": 8081,
      "Ġhang": 8082,
      "Ġcann": 8083,
      "Ġindoors": 8084,
      "Ġconcentrations": 8085,
      "even": 8086,
      "Ġcheaper": 8087,
      "Ġtechnological": 8088,
      "yard": 8089,
      "Ġdiagnosed": 8090,
      "Ġaquatic": 8091,
      "ĠAcc": 8092,
      "Ġconserv": 8093,
      "Ġrepairs": 8094,
      "Ġgolden": 8095,
      "Ġscenario": 8096,
      "Ġverte": 8097,
      "igenous": 8098,
      "Ġcuis": 8099,
      "Ġeleg": 8100,
      "Ġastron": 8101,
      "Ġcoating": 8102,
      "ynthesis": 8103,
      "oral": 8104,
      "Ġsetup": 8105,
      "Ġearn": 8106,
      "was": 8107,
      "Ġwavelength": 8108,
      "hyth": 8109,
      "Dis": 8110,
      "Ġpod": 8111,
      "Ġbeam": 8112,
      "ovascular": 8113,
      "Ġreplacing": 8114,
      "ĠLou": 8115,
      "ĠNeed": 8116,
      "Ġabnormal": 8117,
      "Ġediting": 8118,
      "Ġgender": 8119,
      "........": 8120,
      "imensional": 8121,
      "Ġanalys": 8122,
      "Introduction": 8123,
      "Ġfans": 8124,
      "Ġflows": 8125,
      "Ġ120": 8126,
      "Ġstrongly": 8127,
      "Ġmicrow": 8128,
      "41": 8129,
      "Ġpapers": 8130,
      "Ġremed": 8131,
      "Ġconnecting": 8132,
      "Note": 8133,
      "ĠLead": 8134,
      "Ġwondering": 8135,
      "ĠDisease": 8136,
      "ĠWithout": 8137,
      "ĠFran": 8138,
      "Ġrose": 8139,
      "ĠTips": 8140,
      "Ġsavings": 8141,
      "Ġmatters": 8142,
      "Ġutilize": 8143,
      "Ġuncertain": 8144,
      "pha": 8145,
      "Ġtech": 8146,
      "Ġphysically": 8147,
      "rox": 8148,
      "Ġcorrosion": 8149,
      "ĠDid": 8150,
      "Ġworst": 8151,
      "section": 8152,
      "ĠEffect": 8153,
      "Ġtrib": 8154,
      "ĠKen": 8155,
      "Ġmeter": 8156,
      "ĠFlow": 8157,
      "Ġstir": 8158,
      "Ġversions": 8159,
      "Ġber": 8160,
      "Ġster": 8161,
      "Ġdeploy": 8162,
      "Ġdivision": 8163,
      "Ġhousing": 8164,
      "Ġsenior": 8165,
      "Ġpenet": 8166,
      "Ġstruggle": 8167,
      "Ġfoli": 8168,
      "Ġseparation": 8169,
      "09": 8170,
      "Ġnine": 8171,
      "ĠâĪ": 8172,
      "ayer": 8173,
      "ĠFacebook": 8174,
      "Ġsettle": 8175,
      "Ġwarmer": 8176,
      "vas": 8177,
      "ĠJew": 8178,
      "ogens": 8179,
      "Ġregister": 8180,
      "Ġfigures": 8181,
      "ĠAcademy": 8182,
      "Ġthank": 8183,
      "Ġpurchasing": 8184,
      "eto": 8185,
      "Ġshelter": 8186,
      "Ġinstitutions": 8187,
      "Ġwra": 8188,
      "hma": 8189,
      "Ġflowering": 8190,
      "Ġrepresentation": 8191
    },
    "merges": [
      [
        "Ġ",
        "t"
      ],
      [
        "Ġ",
        "a"
      ],
      [
        "i",
        "n"
      ],
      [
        "h",
        "e"
      ],
      [
        "r",
        "e"
      ],
      [
        "o",
        "n"
      ],
      [
        "Ġt",
        "he"
      ],
      [
        "e",
        "r"
      ],
      [
        "Ġ",
        "s"
      ],
      [
        "a",
        "t"
      ],
      [
        "Ġ",
        "c"
      ],
      [
        "Ġ",
        "o"
      ],
      [
        "e",
        "s"
      ],
      [
        "e",
        "n"
      ],
      [
        "Ġ",
        "w"
      ],
      [
        "n",
        "d"
      ],
      [
        "i",
        "t"
      ],
      [
        "in",
        "g"
      ],
      [
        "i",
        "s"
      ],
      [
        "Ġ",
        "p"
      ],
      [
        "o",
        "r"
      ],
      [
        "Ġ",
        "b"
      ],
      [
        "Ġ",
        "f"
      ],
      [
        "o",
        "u"
      ],
      [
        "a",
        "l"
      ],
      [
        "a",
        "n"
      ],
      [
        "Ġ",
        "m"
      ],
      [
        "e",
        "d"
      ],
      [
        "Ġt",
        "o"
      ],
      [
        "Ġo",
        "f"
      ],
      [
        "Ġ",
        "in"
      ],
      [
        "a",
        "r"
      ],
      [
        "Ġa",
        "nd"
      ],
      [
        "Ġ",
        "d"
      ],
      [
        "i",
        "on"
      ],
      [
        "i",
        "c"
      ],
      [
        "l",
        "e"
      ],
      [
        "r",
        "o"
      ],
      [
        "a",
        "s"
      ],
      [
        "Ġt",
        "h"
      ],
      [
        "Ġ",
        "h"
      ],
      [
        "c",
        "t"
      ],
      [
        "Ġ",
        "e"
      ],
      [
        "en",
        "t"
      ],
      [
        "Ġ",
        "l"
      ],
      [
        "v",
        "e"
      ],
      [
        "i",
        "l"
      ],
      [
        "Ġ",
        "re"
      ],
      [
        "o",
        "m"
      ],
      [
        "u",
        "s"
      ],
      [
        "Ġ",
        "is"
      ],
      [
        "Ġ",
        "n"
      ],
      [
        "Ġ",
        "y"
      ],
      [
        "e",
        "t"
      ],
      [
        "l",
        "y"
      ],
      [
        "Ġ",
        "g"
      ],
      [
        "Ġy",
        "ou"
      ],
      [
        "o",
        "w"
      ],
      [
        "Ġb",
        "e"
      ],
      [
        "i",
        "m"
      ],
      [
        "u",
        "t"
      ],
      [
        "o",
        "t"
      ],
      [
        "Ġ",
        "T"
      ],
      [
        "i",
        "d"
      ],
      [
        "s",
        "t"
      ],
      [
        "o",
        "l"
      ],
      [
        "c",
        "e"
      ],
      [
        "i",
        "g"
      ],
      [
        "Ġf",
        "or"
      ],
      [
        "r",
        "a"
      ],
      [
        "c",
        "h"
      ],
      [
        "Ġ",
        "A"
      ],
      [
        "u",
        "r"
      ],
      [
        "at",
        "ion"
      ],
      [
        "Ġ",
        "on"
      ],
      [
        "Ġ",
        "I"
      ],
      [
        "Ġs",
        "t"
      ],
      [
        "Ġth",
        "at"
      ],
      [
        "i",
        "r"
      ],
      [
        "e",
        "l"
      ],
      [
        "v",
        "er"
      ],
      [
        "u",
        "l"
      ],
      [
        "Ġ",
        "it"
      ],
      [
        "Ġa",
        "re"
      ],
      [
        "a",
        "y"
      ],
      [
        "it",
        "h"
      ],
      [
        "Ġp",
        "ro"
      ],
      [
        "i",
        "f"
      ],
      [
        "s",
        "e"
      ],
      [
        "Ġa",
        "n"
      ],
      [
        "Ġw",
        "ith"
      ],
      [
        "Ġ",
        "S"
      ],
      [
        "a",
        "m"
      ],
      [
        "Ġo",
        "r"
      ],
      [
        "Ġc",
        "on"
      ],
      [
        "Ġa",
        "s"
      ],
      [
        "es",
        "t"
      ],
      [
        "Ġa",
        "l"
      ],
      [
        "o",
        "d"
      ],
      [
        "he",
        "r"
      ],
      [
        "Ġ",
        "C"
      ],
      [
        "a",
        "d"
      ],
      [
        "t",
        "er"
      ],
      [
        "k",
        "e"
      ],
      [
        "u",
        "n"
      ],
      [
        "Ġc",
        "an"
      ],
      [
        "Ġw",
        "h"
      ],
      [
        "g",
        "e"
      ],
      [
        "u",
        "re"
      ],
      [
        "es",
        "s"
      ],
      [
        "ĠT",
        "he"
      ],
      [
        "Ġh",
        "a"
      ],
      [
        "at",
        "e"
      ],
      [
        "il",
        "l"
      ],
      [
        "Ġc",
        "om"
      ],
      [
        "u",
        "m"
      ],
      [
        "a",
        "b"
      ],
      [
        "Ġe",
        "x"
      ],
      [
        "er",
        "s"
      ],
      [
        "an",
        "t"
      ],
      [
        "Ġ",
        "W"
      ],
      [
        "p",
        "e"
      ],
      [
        "Ġ",
        "he"
      ],
      [
        "o",
        "re"
      ],
      [
        "q",
        "u"
      ],
      [
        "ig",
        "h"
      ],
      [
        "t",
        "h"
      ],
      [
        "i",
        "ve"
      ],
      [
        "'",
        "s"
      ],
      [
        "e",
        "m"
      ],
      [
        "Ġ",
        "us"
      ],
      [
        "Ġyou",
        "r"
      ],
      [
        "Ġ",
        "v"
      ],
      [
        "i",
        "es"
      ],
      [
        "m",
        "ent"
      ],
      [
        "Ġw",
        "e"
      ],
      [
        "o",
        "p"
      ],
      [
        "it",
        "y"
      ],
      [
        "a",
        "c"
      ],
      [
        "o",
        "s"
      ],
      [
        "a",
        "in"
      ],
      [
        "is",
        "t"
      ],
      [
        "Ġd",
        "e"
      ],
      [
        "Ġ",
        "("
      ],
      [
        "l",
        "d"
      ],
      [
        "Ġ",
        "P"
      ],
      [
        "Ġ",
        "M"
      ],
      [
        "ro",
        "m"
      ],
      [
        "Ġs",
        "e"
      ],
      [
        "Ġn",
        "e"
      ],
      [
        "Ġ",
        "B"
      ],
      [
        "p",
        "p"
      ],
      [
        "Ġc",
        "h"
      ],
      [
        "Ġ",
        "en"
      ],
      [
        "Ġ",
        "r"
      ],
      [
        "Ġs",
        "u"
      ],
      [
        "Ġa",
        "t"
      ],
      [
        "e",
        "ct"
      ],
      [
        "Ġs",
        "h"
      ],
      [
        "i",
        "al"
      ],
      [
        "Ġha",
        "ve"
      ],
      [
        "i",
        "v"
      ],
      [
        "Ġf",
        "rom"
      ],
      [
        "or",
        "t"
      ],
      [
        "igh",
        "t"
      ],
      [
        "Ġ",
        "le"
      ],
      [
        "Ġd",
        "o"
      ],
      [
        "n",
        "t"
      ],
      [
        "Ġ",
        "1"
      ],
      [
        "Ġb",
        "y"
      ],
      [
        "re",
        "s"
      ],
      [
        "Ġ",
        "D"
      ],
      [
        "Ġp",
        "l"
      ],
      [
        "Ġ",
        "H"
      ],
      [
        "Ġn",
        "ot"
      ],
      [
        "o",
        "c"
      ],
      [
        "a",
        "nd"
      ],
      [
        "ar",
        "t"
      ],
      [
        "p",
        "er"
      ],
      [
        "u",
        "d"
      ],
      [
        "us",
        "t"
      ],
      [
        "al",
        "l"
      ],
      [
        "Ġ",
        "F"
      ],
      [
        "ic",
        "al"
      ],
      [
        "om",
        "e"
      ],
      [
        "Ġth",
        "is"
      ],
      [
        "r",
        "i"
      ],
      [
        "id",
        "e"
      ],
      [
        "r",
        "ou"
      ],
      [
        "Ġa",
        "b"
      ],
      [
        "ou",
        "ld"
      ],
      [
        "Ġ",
        "u"
      ],
      [
        "in",
        "e"
      ],
      [
        "Ġ",
        "E"
      ],
      [
        "p",
        "t"
      ],
      [
        "ou",
        "t"
      ],
      [
        "a",
        "ct"
      ],
      [
        "o",
        "g"
      ],
      [
        "Ġ",
        "im"
      ],
      [
        "n",
        "s"
      ],
      [
        "o",
        "st"
      ],
      [
        "ar",
        "d"
      ],
      [
        "Ġm",
        "a"
      ],
      [
        "el",
        "l"
      ],
      [
        "ion",
        "s"
      ],
      [
        "â",
        "Ģ"
      ],
      [
        "d",
        "u"
      ],
      [
        "Ġ",
        "R"
      ],
      [
        "Ġ",
        "2"
      ],
      [
        "Ġw",
        "he"
      ],
      [
        "re",
        "d"
      ],
      [
        "Ġcom",
        "p"
      ],
      [
        "ic",
        "h"
      ],
      [
        "Ġw",
        "ill"
      ],
      [
        "Ġw",
        "or"
      ],
      [
        "as",
        "t"
      ],
      [
        "f",
        "f"
      ],
      [
        "ou",
        "r"
      ],
      [
        "g",
        "h"
      ],
      [
        "Ġthe",
        "y"
      ],
      [
        "Ġ",
        "k"
      ],
      [
        "Ġin",
        "t"
      ],
      [
        "Ġthe",
        "ir"
      ],
      [
        "t",
        "her"
      ],
      [
        "o",
        "od"
      ],
      [
        "i",
        "z"
      ],
      [
        "a",
        "ge"
      ],
      [
        "k",
        "ing"
      ],
      [
        "p",
        "l"
      ],
      [
        "Ġa",
        "d"
      ],
      [
        "Ġ",
        "N"
      ],
      [
        "T",
        "he"
      ],
      [
        "at",
        "er"
      ],
      [
        "Ġ",
        "L"
      ],
      [
        "Ġal",
        "l"
      ],
      [
        "Ġw",
        "as"
      ],
      [
        "at",
        "ed"
      ],
      [
        "a",
        "g"
      ],
      [
        "ab",
        "le"
      ],
      [
        "Ġm",
        "ore"
      ],
      [
        "en",
        "d"
      ],
      [
        "Ġ",
        "G"
      ],
      [
        "Ġcon",
        "t"
      ],
      [
        "e",
        "re"
      ],
      [
        "h",
        "at"
      ],
      [
        "i",
        "b"
      ],
      [
        "ul",
        "t"
      ],
      [
        "an",
        "s"
      ],
      [
        "al",
        "ly"
      ],
      [
        "Ġb",
        "ut"
      ],
      [
        "Ġs",
        "o"
      ],
      [
        "o",
        "o"
      ],
      [
        "k",
        "s"
      ],
      [
        "i",
        "p"
      ],
      [
        "Ġ",
        "O"
      ],
      [
        "ou",
        "s"
      ],
      [
        "Ġin",
        "c"
      ],
      [
        "r",
        "u"
      ],
      [
        "Ġm",
        "e"
      ],
      [
        "0",
        "0"
      ],
      [
        "w",
        "er"
      ],
      [
        "s",
        "o"
      ],
      [
        "in",
        "d"
      ],
      [
        "e",
        "p"
      ],
      [
        "Ġt",
        "e"
      ],
      [
        "r",
        "y"
      ],
      [
        "Ġ",
        "j"
      ],
      [
        "i",
        "ke"
      ],
      [
        "Ġre",
        "s"
      ],
      [
        "est",
        "ion"
      ],
      [
        "on",
        "g"
      ],
      [
        "c",
        "c"
      ],
      [
        "a",
        "re"
      ],
      [
        "Ġc",
        "l"
      ],
      [
        "Q",
        "u"
      ],
      [
        "or",
        "m"
      ],
      [
        "an",
        "ce"
      ],
      [
        "Ġh",
        "as"
      ],
      [
        "Ġwh",
        "ich"
      ],
      [
        "Ġd",
        "is"
      ],
      [
        "Ġo",
        "ut"
      ],
      [
        "ve",
        "l"
      ],
      [
        "ation",
        "s"
      ],
      [
        "Ġ",
        "\""
      ],
      [
        "Ġs",
        "p"
      ],
      [
        "Ġim",
        "p"
      ],
      [
        "Ġ",
        "un"
      ],
      [
        "ct",
        "ion"
      ],
      [
        "e",
        "ar"
      ],
      [
        "h",
        "is"
      ],
      [
        "i",
        "e"
      ],
      [
        "Ġo",
        "ther"
      ],
      [
        "on",
        "e"
      ],
      [
        "ns",
        "wer"
      ],
      [
        "Ġal",
        "so"
      ],
      [
        "ent",
        "s"
      ],
      [
        "a",
        "v"
      ],
      [
        "Qu",
        "estion"
      ],
      [
        "'",
        "t"
      ],
      [
        "Ġm",
        "an"
      ],
      [
        "Ġon",
        "e"
      ],
      [
        "Ġt",
        "im"
      ],
      [
        "Ġs",
        "pe"
      ],
      [
        "re",
        "at"
      ],
      [
        "en",
        "s"
      ],
      [
        "a",
        "us"
      ],
      [
        "ĠA",
        "nswer"
      ],
      [
        "ver",
        "y"
      ],
      [
        "ig",
        "n"
      ],
      [
        "a",
        "ce"
      ],
      [
        "ic",
        "e"
      ],
      [
        "en",
        "ce"
      ],
      [
        "a",
        "ch"
      ],
      [
        "as",
        "s"
      ],
      [
        "a",
        "p"
      ],
      [
        "Ġf",
        "e"
      ],
      [
        "it",
        "ion"
      ],
      [
        "as",
        "e"
      ],
      [
        "ĠI",
        "n"
      ],
      [
        "Ġthe",
        "m"
      ],
      [
        "ac",
        "k"
      ],
      [
        "Ġ",
        "U"
      ],
      [
        "Ġab",
        "out"
      ],
      [
        "Ġp",
        "er"
      ],
      [
        "l",
        "ow"
      ],
      [
        "or",
        "s"
      ],
      [
        "ar",
        "y"
      ],
      [
        "Ġl",
        "ike"
      ],
      [
        "ĠI",
        "t"
      ],
      [
        "Ġp",
        "re"
      ],
      [
        "Ġu",
        "p"
      ],
      [
        "res",
        "s"
      ],
      [
        "Ġs",
        "c"
      ],
      [
        "if",
        "f"
      ],
      [
        "Ġ",
        "ro"
      ],
      [
        ".",
        "."
      ],
      [
        "Ġs",
        "ome"
      ],
      [
        "Ġ",
        "qu"
      ],
      [
        "n",
        "ow"
      ],
      [
        "Ġwhe",
        "n"
      ],
      [
        "i",
        "re"
      ],
      [
        "u",
        "e"
      ],
      [
        "Ġe",
        "v"
      ],
      [
        "i",
        "le"
      ],
      [
        "il",
        "d"
      ],
      [
        "Ġs",
        "y"
      ],
      [
        "Ġ",
        "if"
      ],
      [
        "it",
        "e"
      ],
      [
        "i",
        "a"
      ],
      [
        "ou",
        "nd"
      ],
      [
        "Ġp",
        "art"
      ],
      [
        "c",
        "es"
      ],
      [
        "Ġne",
        "ed"
      ],
      [
        "o",
        "se"
      ],
      [
        "Ġd",
        "iff"
      ],
      [
        "Ġint",
        "o"
      ],
      [
        "Ġc",
        "ol"
      ],
      [
        "Ġus",
        "e"
      ],
      [
        "Ġtim",
        "e"
      ],
      [
        "ĠT",
        "his"
      ],
      [
        "Ġm",
        "ay"
      ],
      [
        "Ġa",
        "pp"
      ],
      [
        "Ġh",
        "ow"
      ],
      [
        "a",
        "k"
      ],
      [
        "f",
        "orm"
      ],
      [
        "r",
        "ic"
      ],
      [
        "Ġ",
        "Y"
      ],
      [
        "l",
        "l"
      ],
      [
        "am",
        "e"
      ],
      [
        "Ġth",
        "an"
      ],
      [
        "a",
        "il"
      ],
      [
        "Ġthe",
        "re"
      ],
      [
        "ay",
        "s"
      ],
      [
        "b",
        "er"
      ],
      [
        "Ġhe",
        "l"
      ],
      [
        "ro",
        "w"
      ],
      [
        "Ġit",
        "s"
      ],
      [
        "Ġa",
        "r"
      ],
      [
        "ing",
        "s"
      ],
      [
        "Ġbe",
        "c"
      ],
      [
        "le",
        "ct"
      ],
      [
        "re",
        "e"
      ],
      [
        "Ġan",
        "y"
      ],
      [
        "Ġt",
        "ra"
      ],
      [
        "Ġp",
        "e"
      ],
      [
        "Ġo",
        "ver"
      ],
      [
        "ĠW",
        "hat"
      ],
      [
        "Ġre",
        "c"
      ],
      [
        "aus",
        "e"
      ],
      [
        "Ġb",
        "l"
      ],
      [
        "if",
        "ic"
      ],
      [
        "Ġhel",
        "p"
      ],
      [
        "al",
        "s"
      ],
      [
        "Ġcom",
        "m"
      ],
      [
        "Ġb",
        "et"
      ],
      [
        "c",
        "ess"
      ],
      [
        "Ġspe",
        "c"
      ],
      [
        "Ġcon",
        "s"
      ],
      [
        "Ġk",
        "now"
      ],
      [
        "at",
        "ing"
      ],
      [
        "Ġg",
        "o"
      ],
      [
        "Ġthe",
        "se"
      ],
      [
        "nd",
        "er"
      ],
      [
        "an",
        "g"
      ],
      [
        "o",
        "ve"
      ],
      [
        "or",
        "d"
      ],
      [
        "in",
        "t"
      ],
      [
        "l",
        "es"
      ],
      [
        "on",
        "d"
      ],
      [
        "ou",
        "gh"
      ],
      [
        "h",
        "y"
      ],
      [
        "Ġg",
        "et"
      ],
      [
        "ol",
        "og"
      ],
      [
        "t",
        "e"
      ],
      [
        "Ġd",
        "es"
      ],
      [
        "w",
        "e"
      ],
      [
        "Ġt",
        "r"
      ],
      [
        "is",
        "h"
      ],
      [
        "a",
        "ke"
      ],
      [
        "Ġ",
        "âĢ"
      ],
      [
        "Ġst",
        "ud"
      ],
      [
        "st",
        "em"
      ],
      [
        "rou",
        "gh"
      ],
      [
        "Ġin",
        "d"
      ],
      [
        "Ġs",
        "a"
      ],
      [
        "Ġw",
        "ater"
      ],
      [
        "on",
        "s"
      ],
      [
        "Ġus",
        "ed"
      ],
      [
        "Ġpro",
        "du"
      ],
      [
        "Ġo",
        "ur"
      ],
      [
        "Ġwh",
        "at"
      ],
      [
        "ou",
        "nt"
      ],
      [
        "Ġc",
        "o"
      ],
      [
        "or",
        "y"
      ],
      [
        "u",
        "b"
      ],
      [
        "Ġe",
        "ff"
      ],
      [
        "Ġ",
        "3"
      ],
      [
        "at",
        "ure"
      ],
      [
        "m",
        "s"
      ],
      [
        "ul",
        "ar"
      ],
      [
        "Ġdiff",
        "ere"
      ],
      [
        "Ġ",
        "ra"
      ],
      [
        "Ġ",
        "J"
      ],
      [
        "ar",
        "i"
      ],
      [
        "Ġf",
        "l"
      ],
      [
        "Ġg",
        "en"
      ],
      [
        "Ġm",
        "ost"
      ],
      [
        "Ġy",
        "ear"
      ],
      [
        "al",
        "th"
      ],
      [
        "l",
        "ud"
      ],
      [
        "n",
        "ing"
      ],
      [
        "Ġof",
        "f"
      ],
      [
        "oo",
        "k"
      ],
      [
        "t",
        "ing"
      ],
      [
        "rou",
        "nd"
      ],
      [
        "op",
        "le"
      ],
      [
        "Ġa",
        "ct"
      ],
      [
        "Ġa",
        "cc"
      ],
      [
        "Ġsu",
        "ch"
      ],
      [
        "ic",
        "k"
      ],
      [
        "ver",
        "s"
      ],
      [
        "er",
        "v"
      ],
      [
        "Ġwh",
        "o"
      ],
      [
        "c",
        "k"
      ],
      [
        "n",
        "e"
      ],
      [
        "Ġa",
        "m"
      ],
      [
        "Ġpro",
        "v"
      ],
      [
        "Ġu",
        "nder"
      ],
      [
        "Ġma",
        "ke"
      ],
      [
        "Ġwe",
        "re"
      ],
      [
        "i",
        "ent"
      ],
      [
        "p",
        "le"
      ],
      [
        "Ġa",
        "g"
      ],
      [
        "Ġne",
        "w"
      ],
      [
        "et",
        "h"
      ],
      [
        "Ġad",
        "d"
      ],
      [
        "Ġsh",
        "ould"
      ],
      [
        "x",
        "t"
      ],
      [
        "at",
        "es"
      ],
      [
        "Ġs",
        "m"
      ],
      [
        "Ġt",
        "w"
      ],
      [
        "Ġ2",
        "0"
      ],
      [
        "Ġc",
        "ar"
      ],
      [
        "il",
        "ity"
      ],
      [
        "f",
        "ul"
      ],
      [
        "Ġe",
        "m"
      ],
      [
        "Ġbe",
        "en"
      ],
      [
        "ĠS",
        "t"
      ],
      [
        "j",
        "ect"
      ],
      [
        "ur",
        "ing"
      ],
      [
        "an",
        "ge"
      ],
      [
        "ir",
        "st"
      ],
      [
        "Ġpe",
        "ople"
      ],
      [
        "Ġw",
        "ould"
      ],
      [
        "ot",
        "h"
      ],
      [
        ")",
        "."
      ],
      [
        "Ġinc",
        "lud"
      ],
      [
        "Ġsy",
        "stem"
      ],
      [
        "er",
        "g"
      ],
      [
        "Ġth",
        "rough"
      ],
      [
        "Ġwor",
        "k"
      ],
      [
        "p",
        "h"
      ],
      [
        "os",
        "s"
      ],
      [
        "ment",
        "s"
      ],
      [
        "Ġj",
        "ust"
      ],
      [
        "Ġt",
        "y"
      ],
      [
        "Ġd",
        "i"
      ],
      [
        "Ġn",
        "o"
      ],
      [
        "Ġp",
        "r"
      ],
      [
        "b",
        "le"
      ],
      [
        "Ġon",
        "ly"
      ],
      [
        "he",
        "s"
      ],
      [
        "Ġ",
        "K"
      ],
      [
        "o",
        "v"
      ],
      [
        "ic",
        "s"
      ],
      [
        "Ġm",
        "y"
      ],
      [
        "Ġp",
        "o"
      ],
      [
        "ow",
        "er"
      ],
      [
        "is",
        "e"
      ],
      [
        "it",
        "s"
      ],
      [
        "at",
        "ive"
      ],
      [
        "Ġpl",
        "ant"
      ],
      [
        "it",
        "ies"
      ],
      [
        "c",
        "ed"
      ],
      [
        "Ġin",
        "ter"
      ],
      [
        "Ġs",
        "ur"
      ],
      [
        "Ġ",
        "ke"
      ],
      [
        "t",
        "en"
      ],
      [
        "o",
        "b"
      ],
      [
        "Ġ",
        "V"
      ],
      [
        "Ġman",
        "y"
      ],
      [
        "ar",
        "k"
      ],
      [
        "Ġh",
        "igh"
      ],
      [
        "Ġw",
        "ell"
      ],
      [
        "Ġre",
        "l"
      ],
      [
        "Ġre",
        "g"
      ],
      [
        "ib",
        "le"
      ],
      [
        "he",
        "n"
      ],
      [
        "vel",
        "op"
      ],
      [
        "Ġhe",
        "alth"
      ],
      [
        "ow",
        "n"
      ],
      [
        "Ġb",
        "u"
[...]
